BDEAB68D
BE386B9C
3E1B7E4E
BE5B877B
BDBDA05A
BDE0B029
BDEAC647
BDBFC4C1
BDF70E6F
BE4806AF
BD9E8709
3E2EC6BD
BE8ED656
BE5AA9F8
BD614AD3
BDC12E84
BEAE9D0F
BE847F56
BEAD818C
BD4C942D
BE9F357E
BE4335D2
BE6A871A
BE007F67
BE58954A
BE07867F
BE0DD8F9
BD9DE58E
BE5F505D
BEACE9C4
BD003687
3D45681F
BEB76274
BE9C7714
BE112839
BE734F40
BE367558
BEB45DEA
BC34916D
BE1CBF2B
BE259685
BE55FC7E
BEC69A91
BDCC96CC
BE80F217
BE0D3997
3D897204
BE056ABE
BE1E108C
BDE0A958
BDCBB906
BE5C3FC4
BE9CD877
BC565A14
BE136AC6
BE6C78A7
BDA5E6FF
BD996851
BDD48909
BEA704FF
BC9A3098
BE8CBF4D
BDF5903A
BE96CAEF
BE787C20
BE2F7A0B
BE199392
BE489CA2
BEA7B118
BE2B97BB
BC7AEFF6
BE300C52
3E2EA748
BE63D7D4
BE4A8E71
BD835EFA
BE635116
BE0FD2A6
BE22E4D2
BE3A9BD0
BE8B1099
BE73B14B
BE8FDE0D
BEBED1BF
BE53586D
BEA4C07B
BE84C122
BD1795B3
3D218266
BE734B94
BC9E236C
BE16466B
BE9ED289
BE6264E5
BDF0B6B7
BE9393AB
BEB5084F
BDF47AE1
BE86861F
BE5ADCD3
BE0B588E
BECA7393
BE254003
BE20B73D
BE5B0532
3CFB2032
BE71337F
BE5DBB17
BD84CB5C
BE89628D
BDBEF7C2
BEB00C95
BED1B281
BE746280
BE459210
BDF4BE83
BE82A327
BE88B7A2
BD320642
BDB69C24
BECD11E0
BDE68449
BE311516
BE8E581D
BE98285F
BE62C01E
BE0DACAC
BE008D4C
