BE96F284
BD669AD4
3E3DC2B1
BCFD8CF4
BE31F645
BE28800F
BD1377E2
BD44B3C4
BD6C0A4A
BD4880D8
3DD150DB
3EBB9757
BDDC4007
BDD8CDA7
BD8DEEBB
BE68E2E3
BD33A366
BDE87E39
BDA7381D
BEE3E165
BEE8F1B2
BD98298D
3CE1A3F4
BC53AE68
BDCCCF6C
3E465CF6
3EA2B5A2
3AC8EEF2
BD6A9718
3D71971C
BE77DB2B
BDB84556
3E7C7C52
BDE9ECB3
3E8CF67B
BE4F25E5
BDAAF5FD
BD32CD7D
BD3B677F
BE4BDB5E
3E489A46
BEC28DA8
BDE07B35
BDAF501A
3DA8B19A
BD361566
BE23BF72
BE4CEF24
BEA5F5F1
BDFB4917
BE1E6CD3
3E42AF57
BDE3632C
BEA38E8F
3E2C5719
3E38155D
BC9DC93F
BE0793DE
BE891559
3ED0B242
BD045CBC
3E090DE1
3E56733F
3E53CFB3
3D1858BC
BE2B31C2
BE5883BA
3D9F5DFF
3D5420B4
BCD421C0
3E8A9739
BE7B2A6B
3E0D6ADF
3E2E1A3F
BF1D39FC
BDA63305
3E0B7282
BDF235F8
BE8DE95B
BF011138
BE55E636
BE9F6FB1
BE1C6003
BA62C12B
BE9867CF
3C9B2C41
BEC73776
BD7EC248
BE8EABBD
BE999008
BE080FDC
BE20BE51
3CFD438D
3E59AD43
BDA9EFD8
BD84E161
BDCCFBFC
3DDEB7CC
3E25C747
BE2FECDD
BF103409
BD07CC7D
3D57F306
BDF53049
3D75DDD3
BE15B574
BDFBDA51
BDBAE361
BEF040C0
3EC3F2F5
3C263305
BD5F19D6
3E95B5B7
BC47A7CA
BDC51EB8
3E8F2A17
BE7DFF3F
3E9F54F3
3DA94467
BD207E5A
BD6E7C4A
BDB50D28
BCC76295
3E03925C
3DDFD0D0
3E334D6A
BBB86B16
BE834763
BC95AF29
3DADD0D9
BD5DFB94
BD8043A2
BD74DF05
3DD6F651
3E30A30E
BDA5B185
BE9D23D5
BE1BDD33
BDA57860
BE265F0F
BE20C7C1
3E5F66E8
3DAB430F
BE015769
3D8E7360
BD8D41B7
BDE5E3DA
BDF67989
3E2A3832
BCF1B25F
3E38FF76
3B5B163C
3D7065F9
BCEE2A80
BDE46BF0
BC262670
3E243CC0
BE3C37A4
3E1F9E38
BCEA2F49
BDAE72DA
BE3955B4
BC002C0A
BB3A51A0
3E720A31
3DD0FCF8
BDE2ED35
BE51CD60
BE161BF3
3DC346DC
BE2F26F2
3E0BDAD7
3DF737DA
3DC5EDD0
BE8462C3
3E89E710
3DA810A5
BD83A216
3D0EF566
BEB2F46B
BDA38759
3DE4B44A
3D05AF6C
BE8E11FD
3D9B37CA
BE128F9F
BDBA3769
BE948B44
3DC32C1F
BDC67A53
3DBBA451
3D224788
BE231594
3DF9C6B0
BE4372E7
BDB84C27
BDB4E011
BE1A5CE6
BE14CE81
3DDBF488
3649539C
BD93B96B
BE400C52
3B3B2BBB
3CAE6A77
BDB815A0
3D899179
BE15E5F3
3E49717E
BE217226
3D675254
3DE84945
BD956B01
BC8535CA
BD80A4A0
BDA1B3AF
BE2A25D9
3DF55BCD
BDE25205
BDB919AC
3E359DDC
BEA593A3
BD55B467
BDC6B3FF
BE284018
BE5ACBC9
BE0FE8EE
BE42D7F9
BC996313
BD842F1F
BBEA8DA8
BDCD43D0
BDE0956C
BE64BBA1
BDB27D46
BD8D19DF
BB487981
BEA4CFD1
BE19E7FB
3DDB2FEC
3BAA6D26
BD215FCC
BCB4506A
3D74D7AE
BE72602D
3D00DD40
BE6C7D1C
3C9BA5E3
3D9CD142
3E578DD6
3E28A611
3DEF97EE
BE4395C4
3DE2C6EF
BE1D4281
BE3307F2
3DEDF71F
3E9D466F
BCEED677
BEBEF2A6
BECB3EFF
3E8565A1
3EBB31A1
BE656473
BCA4AADA
3C5887EC
BE8D3A60
3D8D612C
BCF72D5E
BE64AC2A
BD01B110
3DA8F084
3E1354C1
3E82E276
BDB0DCFD
BE850AEE
3E31BE2B
BE4303C0
BE4DDBDB
BE3F56A8
BE876FB1
BEA1B34A
BDD486F0
BEB500D6
3D10DAE4
BE82B1F7
3EB60610
BDE66905
BE68E758
BE2C868C
BD852D66
BE81C10D
BE4317F0
BE31CF35
3D5E3FBC
3E8E492C
BE1041CC
BD6836EB
BC88D2A2
BE4C857F
3DF9EF95
3F04F91A
3DEFC0D3
BEC2D906
3E47429A
BEB57E24
3E6DA166
BE591B82
BBD35222
3DC22AB2
BE55E786
3EC97EDC
BE68572A
BE430CAA
3E44ACF3
3E7A886A
3D07C526
BD8C1C1D
BE4CB74E
BC057F30
3D34794F
BDB82E45
3D7B17CE
3D8D55A4
3E4B2C84
3E57B4A2
BE9879E6
BEA6DBF9
3E7A6CE3
3C85E3DA
BD4C20D5
BEC3A733
3DAEF566
3EB157CD
BEBEC3FC
3D76976C
BE8C3D8A
BEDF1ED1
B9DDC619
3D955C53
BD885E3E
3D35BE5E
BD9BF50E
3E439368
3E0B599B
3EC78F26
3D9A6699
3E709E13
3E6848BF
3ED07896
3E4BAB22
3E8F47B6
3DBE82D8
BD967B1C
BDBF7165
3CB2702A
BE75C140
BE2DC550
BEBF2A17
BE913101
3E7338F8
3E3C83A9
3DF1A4BE
BCFA2058
BEA787CF
3ED27ED8
BE6405F7
BDA3BE66
3E16EBD5
3E9AAE08
BDE5D28D
BC976790
BDF14014
3CCE6E22
3E3B56B8
3DE18DEF
3DE4E9C4
BD9DBEC2
3DF0B524
BE66C93A
3DDACA36
BD4533B1
BE500B03
3D949518
3E740AAF
3CD8DBCF
3BDD377E
BE423C43
BE3A9867
BE505C03
3F01F4D3
BE4F91E6
BD723034
BE7121AB
BD8F9229
BC2FD545
BE678AB1
BD868EC5
BE1FE932
BD44816F
BD6FDA83
BE018549
BDDE7E20
BDDA5EBB
BE941095
3E3B19E7
3E014F48
BE67E847
BD483FD5
BD380779
3E17FB6A
BE5629D8
BD40B999
BE00841F
3EC86C87
BD779421
3E8B5C7D
BD1FAFC9
3E182E45
3D7D5561
3D93061C
BD710DBF
BE547560
3DAE5D5B
3E8836EB
BDEAC6CE
3DADCFCC
BDC94574
3EEF633D
3F275947
BD22F7B1
BE81EEEE
3DA92EE8
BDDAA3F0
BCE16D6E
3D188A05
BE6E4FFD
BB3252CE
3DAC5543
3EFC87DB
BE7703F3
BEA83BE6
BD1899BF
3ED6AF8A
3DDB8B26
3E6242D0
3E97B070
3E6E5C92
BAD79D0A
BDB7FBF0
BD9FC2A9
BDC496EE
3AA0D34A
3D00852B
3DF898B3
3D8410B6
BE0858BC
BCDBF8BA
BE414339
BEB93C47
3DC7BDCF
3D84F334
BDF8D478
BDF3048A
BDAD5A5C
3D9121AB
BD4A2984
BAC197E5
3D53D534
BDB550CA
BD9867F1
3E43D9EC
BDBBE879
BC1307AF
390637BD
BD991687
BE17C4A0
3F3AF545
3CD36934
BDE2834D
3C20C283
3E66327F
3DA1D085
BD784556
3DCD3309
3D15AF29
3E0C579F
BD59146E
3F0396F2
3E2E279E
3E6649D4
BE40DE4C
3E92311F
3EDD1F3F
BD8F3ECD
BBBE61D0
3E1926C8
BE2EFB2B
3E9B20B8
BDA7D3D4
3ED02731
3E8A361A
3E6DBBE0
BCCF4C6E
3E56B617
BCE6AFCD
BE475EEA
BD0DB057
3A76F08D
3E5D2DCB
BE087DB3
BEA09B0F
BC8B3D4B
3CAE03B4
BDA10C6F
BDCAA088
3CC4C9C9
BC8023A7
3D162E0A
BBF7B9E0
BEB34C5E
BCE501E2
BE3D44DD
BD520F2C
3E296F22
BCDB035C
BE80DB49
3E5C19C1
BDA6162F
BD9A7760
BDB68E82
BE6A53FC
3DEAD363
3CE3BEEC
3DD01EAC
3D0EC41E
BE197529
BE150508
BEA5ECA2
BE0569F5
BDC3486F
BE248B65
3E0E4B88
3D177EA2
BE3FD220
3B9FE005
BD409B30
BDCE1B4C
3DB4A904
3DE8ECD9
BE6BA7FC
BEA1B329
BBA209AB
BE5B291C
3DB3E5FB
3D80DED3
BDAE0A85
3DA92E62
BE5E03B4
BDDEC919
3E0297C0
BDED7519
3DBFC7E7
BE8B72C5
BDD41D8F
BE92AC97
BE8EE6FB
BE255DA2
3E54C448
BD3252CE
3C8C9FB6
BE6FB00C
3C186FCE
BE3B8067
BDF4B72C
BC051A87
BDD89507
BDF13A50
3DDAC2DF
3E839EF1
BE19667B
3C8270F4
BE3854CE
3E4510D4
3D6C8E69
3D3E4367
BD728955
3D9EDE98
BE3D9FD3
3DC83A11
3D34202E
BD12CF10
BD497E99
3D2C01E7
BCED5CFB
3B9949E9
BDE29175
BE201323
BDABAC71
BE4067CF
3DAD3D86
3CC02F30
3DCDA986
3E42CCF7
3CD27A20
BE95E4E7
BE2CD39E
3E368512
BED58234
BE7166E0
3DF7939A
BE9E3F36
3D8CDD0E
BD96FFC1
3B196B76
BDD42F62
BE2F1C76
BE5FDE72
3CD6B010
BE54DCA9
BE1338F8
BD97ADD1
BDF98A65
3D68EC53
BE575297
3E05BCCB
BD08BC9D
BE65F3D8
BE45C183
3DBE7D9A
3D4C4DEC
BD94DF8B
BC94A904
BD2175D1
BD01B973
3DD4D2F6
BE87123C
3D0D8A98
BE36D6DC
BD5E44FA
BE252008
BE07429A
BE5882F1
3C09C5E7
3DD55582
BD4A1CEF
3CCE4431
3E3F18CA
BEE4306E
BD2E978D
3DFD1915
BD875DDD
BC8D562A
3E39F341
3D92DCB1
3E1C93EA
BDD5B24F
3D472F34
BDECE91D
BD57BB73
3DF0B49E
3DB761CC
3DD085F5
3DB252CE
3DA31F04
BE1555C5
3D4345D0
BD02E44B
3CDCA07F
BE090F30
3D12BB23
3DC04C8C
BBD6909B
3D55E4A4
3B75D356
BD18FF76
BC4DD50B
BDE33483
BE5D2CBF
3E54DA0A
BC89CE4A
BE33FE5D
BD66EA85
BD8E75FF
3D370260
BE4AB042
3E2B1141
3D90E560
3C99D884
BD760AE9
BC507421
BD43419E
BF1DF8A1
3CCBF4CB
BE06F71A
BD6820E6
3B7BFC65
3C9528F2
BE1B8F9B
BD3BCD36
3D894EE4
BDFC3CE2
BD836F3B
BE5E7AFA
BEECAB60
3C400DA2
BE1B31C2
BE0F0A5F
3D096EDF
3E042310
BE5AB1D5
3E21FEA8
3DC9A6F8
BE720B3D
BB45C9A3
BD9C1F86
BDAF0F9D
BE7A6EFC
BE791D58
BD921816
3E0C1509
3DC7F562
3E3A2014
BE32A0A9
BE97C19C
BDC2FBE3
3BCFA69C
BD4C1334
BE4133C2
3C371B8B
BE7D0785
3E3D959A
BC85100A
3CA1B5C8
BDBCAC8E
3D1F1CFC
BEDEF5CB
BDEEC95C
3DA8DB05
3D90E992
3DB77B7C
BE0969A1
3DC76C8B
3E4B5D89
3D86E760
3DDFF25E
3CDCB146
BD014E7F
BCEAE9EE
BEC916EC
3D98CB08
BDCB1C43
3C61B08A
3D347410
BE541312
BE486013
BE9B08DD
3C2F8594
BDAB4FA5
BDEF75DA
BE5F38C5
3CC0DF59
BD8C9FB6
3D8D3847
BF012DAA
BD1E7211
3C1984A1
3D20CCFF
3E5C32EC
BE7070FC
3D89CB25
BEA543F2
BEEF648C
BEF104F7
3E572431
BF8365AA
BD06DC5D
BDC5BC88
3E583E42
BE942C3D
3D06FCDF
BE601E26
BE019E73
BE589119
BE4C953A
3D5E7536
3C73C2DB
BF29CFDD
3E476534
3ED902DE
BDCC2F83
3D44D984
BE9C24E6
BF6B049B
3E41E753
BF1C07FF
3EA52A20
3D459D99
BF1C00A8
BED47065
3E19B23E
3D029E0A
BD9EB639
BE0EEDCC
3EE39E06
BE40281C
BE9C6AE4
3DEE06D9
3E2395C4
BE3A0F91
3E63C5BD
BD20C8CD
3D5985AD
3E6B9E49
BC4636B1
3E0BAC71
3C22552A
3D4431BE
3F14051D
3E90D66F
BE5DCBDE
3E0EC28B
3E23C600
3E858D7A
BEE2AF14
BB304AB6
BEA838A0
3E2C5E70
BEDF557A
BE04D5D8
3E2BD8BE
3DC81A15
BCE6B617
BF4AE3F8
BDE7357E
BD3F9D6F
3C8C21E2
3E175F2D
3E3BB01D
BE2BA6AD
BE833DD1
BE0E5040
BF068C48
BEB3FD93
BDA892AB
3BB2074F
3D6ECF20
BF503FA3
BEAEF523
BE2BEA92
BDB60FA1
3B3AF966
3BB78898
BE13FC87
BE382907
BE5743A6
BD026352
BF1089E3
3DF4F93C
BED0DAE4
BE445671
3E338972
3E27B0B4
BE47253E
BDBFF584
BD86A338
BE4200C1
3D055C96
BE6D7D39
BDBE5D9E
3E5EBBFD
BEC1F128
3D7E3B04
3DB00FFE
3F0A1FB0
BDCC5B08
3E616BDB
3E11B79E
BE7C0CE9
BDEDA4CF
3DFFA97E
3E61A0CF
3E41B6D4
3E05F352
3E47D1BB
BDF48B22
3DCD23D5
BEB5F783
3E6FCA86
BEB0F92B
3D15E5B0
BE7FEDA6
BEC00E49
BE0D7FD8
BDC5E3DA
3EC7383F
3E1F76E6
BC9D3ED5
3D608D09
BE36D8B2
3C40FCB5
3D0DAE3E
3CE57109
B9B5ED8D
3E821D32
3E008312
3E677D95
3E2F6A0E
3D75568F
3DA2339C
BCC345D0
BE507182
BE582DBE
BD453F3A
3E0F876A
BDD3660E
3DBE492C
3D520D13
3E6B862B
3CAB5E53
BE202D9D
3D70B285
3DD80E49
BE5E2867
BDD4B2FB
3E81D92B
3DFEA034
BE5621B8
BE253B4B
3E897E35
BE314877
3E13BB84
BE8BD295
BE155DE6
BE74DF05
BE1DB489
3D904684
3C970718
3DB918A0
BD3940FF
3E4E9079
3D9DA37F
BE0EDFE7
BD6B1811
3BD72FFD
BE9D5044
3E35FA22
3E26C4C6
BE272D5E
BE1F038E
3C709D8C
BE44BCF1
3D63B14B
3D9E4713
BBC48ADF
BCC42203
BE293F29
3DBA469D
3D8A3487
BCCCD530
BD8FAF86
BE26F04A
BDD713AD
BC37DC7B
3E068944
3E67E7C0
3DF55C53
BE52706D
BDCB4AED
3E0283D3
3E311E00
3D0B2A6B
3E2836A8
BDE9856A
BE24191A
3DD37543
3D16C93A
BE27D73D
BDE9C886
BD24191A
3DD73A79
3E03F184
BD8DA22F
BD071F79
BDAD4C34
BD8148BB
BD9DFB0D
BE2CC5B9
3CC0D2C4
BD437B4A
BDA43809
BE17685A
3DF89EFE
3E1A8113
3E2ED352
BD61DEAD
3D0B6A62
3D4535CA
3D0B955F
3E8E5D18
BE94D749
3E1BAADE
BE537EF6
BD1881A1
3E108312
BD1ADB83
BD5845DD
3C7FC979
BE154A80
3D44CDFB
3DB05D10
BE1DF71F
BCB4F616
3C0C2614
BDE502EF
BD682731
3D97FE09
BE211C6D
3D47A17F
BE887076
3E2D7CB3
BD85D4A6
BCD3111F
BDB9231C
3E3D388B
BE708206
3ED5C6C1
BD7F1C76
BE5553EF
3EEB8866
3E81A5EC
BE61183B
3ED3C83B
BE9454DE
3DC58927
BDC44D01
3DCA8438
BE8EB0B8
3E4F1130
3E1D2B6F
BEACACF3
BDCAA194
BE1D15AD
3E167558
3DEDDACF
3EBE6BC6
3EA946C3
3E01361E
BE7616B5
3D29C77A
BE34DD72
BE3EF1BB
3DB61BB0
BE056191
3E008E9B
BD9D0E13
3E84A127
BE7AE03B
3E704A73
BE089D28
3E151FC5
BD4F1A1A
3D4306E6
3E3D872F
BD35232D
3D6FF2A1
BE77314D
3D91172F
3E0DFE33
BE1B7132
3ED5F6FD
BD1D3FE2
3BDA4CE8
3DEC8605
3EA6A897
BEC7E4DE
BEA5653D
3EBDEF20
BDAB074A
BE55E918
BE662889
3DF7720D
BECCAF71
BED504A3
BE7404EA
3DAFE048
3EB23A4B
3E0778DD
3D36BD2B
3D12146A
3E04091C
BE4E6C8F
BE2482BF
BBB430F5
3E870047
3DA54C55
BDA0242D
BE1996B7
3DB6F32C
3D1028A2
BC55BAB2
3E207A6C
BC88A47F
3D89680E
3D92EC6C
3D1F1E08
3C95BDD7
BE672F34
BF0C3ADA
BE8DCF25
BE98EB25
BCA602C9
3E5CEE9E
BDB3B214
3EBA9197
BE697247
BD90F7BA
BCA0CF18
3F034752
BE1681ED
3ED87BDD
3E7EEE0F
BE776F2A
3D9212D7
3E2938DE
3B5D2F1B
3DBD6495
BE221709
3EA4DAB2
3E13EC03
3E9134F0
3E9FD524
3EA58F2E
BEE07E39
3EAA567A
BEAE0115
BF20011D
3D4D5D81
3DE318B9
BDB8D152
3E19D841
BEE2D59D
3EA9335D
BE2EFE0D
BE96C094
BE638B05
BBE33EFF
BEFAD539
3E837825
BD2088D7
3DC109D0
3E51FBC6
3E20913A
3E8B5D25
BCBC44BF
3D21FE22
BD791F71
BE606749
3E1EF49D
BCF4C2B5
3DD38EF3
3D507B78
3E0848BF
BA7F5409
3E143E10
BDF9D777
3D723034
3D01259A
BC521BC1
BECEAB15
BD219008
3DE1882B
BE2A58B4
BD91209F
3E147992
BD27E415
3E1D6627
BEB15AF3
3EB418D7
3DB2D55A
BCF90B85
BE8069A5
BE24373F
3E0E392E
3E981ABD
BE89E27A
BE0D759F
BEBF5DFF
3EB4D4AA
BD4127B3
3E2C2D6B
BD8F7985
3E17C782
BD289EBA
BE140FAA
BDA43915
3DBF45E1
3E1BB060
BB61C582
3DFB81B6
3D553EF7
3C9F0A1C
BC0A6117
BEA27547
BE1CD6C3
BE3C94B4
3EBCA793
BDF5D9A1
3DBAA25E
BEEE8295
BDFC4977
BE710300
3E2162AE
BE88A937
BD01461B
3D86A11F
3E4B4D8C
BE558362
BDA131A9
BD5E3001
BCB94531
BE928390
BEA3E271
3DB645A2
BE283F0C
BEF00325
3E24C986
BD0240B8
BEDE889C
3DAC4370
BDB22B7C
3E921598
3D101084
3D06C54C
BD9DCBDE
BDC575C0
3E17AF21
BDDE279E
3E6DE5D2
BC935979
3D3AC92A
BCF2DE44
3D5EA67F
3E0A4096
3E4D36F8
BE5021D1
BE0B8306
3E51EF31
3CE26F61
BEAD3A1D
3E270AC4
BD2B302F
BD63F141
BF0D042E
BEBCD0FF
BF0F47A6
3E97F62B
BE26BC1F
3D30FF11
3E0614E0
BBC99F1B
BDC24702
3D90F6AD
3DEE8E1D
BD06F7A1
3E755B46
3E8A0AB7
BE2EF49D
3EACFD6D
BD4A2121
BDA7C06E
3AB0AF60
BD4F67B2
BCB6EB4F
3E1F7B18
3E7B7CFE
BEA0C32B
3EABC03C
BE91D9F5
BD310774
BE1A172B
BDEADF72
3DB75968
BE808A26
BE063F57
BDB16873
3E016CE8
BDB843C4
3DD1ED9E
BE877037
3D3BFE7E
3DDB634E
BE122574
BD181494
3BEA63B7
BD1C4A84
BDDB762E
BCF7D30B
3EB7D32C
BE0D4CFD
BCA2A4DB
BD810625
3E8E1EB4
BEA06467
BD0C8366
3D531FCD
BDF8FA37
BE507358
BD944B2B
3E04C166
3D5C8217
BD3BD167
BE0C65C7
3E29563B
3E14E768
3DCDC982
BD20DAA1
BE5FB268
BE9BDE40
BD61A2E8
BE0A109D
BDB8244F
3DDFC548
BDC92B3D
3D6CADDE
BCD5714C
BE7F52FC
BD9204B0
BE06583F
BE26149C
3DDCB146
3D628ED6
BD68112C
BE87B8B2
3D023209
BDF76CCE
BE1860DD
3DA7674D
BD7EBBFD
3CFEF178
BC84A948
BDB39C95
3CEF544C
BD81C1D7
BE334224
BDA02214
BE70BED7
BE2CF462
BE00ABF7
3DAAF683
3E513448
BB1B8455
BCAA6B0E
3E99AE4F
3D5949E9
BDAF544C
3E623748
3E2039AC
3CF37111
BDA7210C
BE3C7A3A
BD944E51
BDF46888
3E3C896E
BE91656F
3E85D767
3E17F0ED
3DD8E5C5
BE311948
3D634A88
BE9E5FFA
BDF29025
3D147065
3DD88A05
3B3CBE62
BE83D85A
3BFC7A3A
3E19ABB0
BE6CE960
BE5E2C13
3E422DD8
3E808CE7
3E6D188F
3E3FD114
BE2BF983
3D9B6D44
3CB42678
3B304AB6
3DFB0143
BDB6B7ED
BD93F0FE
BD462F5A
BD1B24EA
3DDD1F60
BDD1550D
3D65FA66
BE2DFB94
BD933440
BE534CA1
BDEED45F
3DC69403
BE0DD7AA
BD2EBF66
BD42107B
3D9F0564
3DF2C493
3E2EED03
3E1D462C
BED64D1A
BDA0B1BC
BDCCD291
3E633A04
BDD6D656
BE88F68C
3DA8B5CC
BD7FE197
BD2888B5
BD4A3B58
BE4D5886
BE0CDD0E
3DF65E46
BE59799E
BDEC2B52
BE293E1D
BE6EDE98
3E39984A
B993D966
3D9ED0F6
3B425072
BE79A4DF
3E5B2AF1
3E2A82A5
3DD03D9B
BE8A1FF3
3E1EBFA9
3E18E3AC
BD52D44E
BDE96E59
3D8BEF07
3E1107FB
BE06CE36
3D683F4F
BDE7D2C8
3D291969
3E0E79AB
BEA7CCE2
3E45BE5E
BE0D71F3
BDF089A0
3EA6FD65
3DDC3DEE
BE8E69CF
BD9EFAE8
3D74B72C
BE0A511A
BE704D12
BE247C74
BDCD46F6
BE13037D
BE0E7147
BDCEBC41
BB43C18B
3E17E133
BDB143BF
3D35E95B
BE0621B8
BE1AA4BA
BE57D2C8
BD321C47
BDD9D1B3
BEBE7D78
BE91F18D
BDC3D1CC
BE1B9B24
BE39A7C1
BE6EF06B
BE20FD3B
BDD8C112
BE8DEBFB
BE71F9F0
3B861E93
3D9D8384
3E990C2C
BD714FCE
BE11E860
BE5B588E
BD97F306
3DF24C83
BDE643CC
BBBAD7D8
BD0D7061
3DDDE8B4
BDDDE93A
3BE5D5B2
3E24912A
BE494B38
BE947326
3DDAA045
BE0C8D5C
BE4E5F74
BDF1AF3A
BDDB762E
BDDACABC
3E021EE6
BE11E03F
BEE039AC
BE2BCA10
3D4F0C78
3D8E13F5
3DAF1A1A
BE237C57
BDFC32EC
3CBB42CC
BE8156C1
3D3E23F2
BEAC7AC0
BC9F8E3B
BE08EFFE
BE57229F
3E244A1F
3E4A511A
3C63BCD3
3E5DACAC
BE05EEDD
3E4D38CE
BBB1F688
BE1DE97D
BDA6EA85
3CD4E098
BD27913F
3D77A701
BD45DC83
BDAE87D3
3E90125A
BDBA2F06
3E3C8649
BC811D36
BEAB0532
BD045ED5
3B602214
3E8629B7
BE977575
3E4C4546
3E0E5040
BAF4D7AE
3E03953E
BEA2A865
3E91591D
BE2FA26A
BEBB1AB1
3E4E8C05
3E978162
BE517332
BE2644D8
3E1E275B
3E6DC098
BD995CC8
BEC410D8
3D487981
3DAA23C0
3E42C0E8
3E000FBB
3E243676
BD52018A
BEE19C7C
BD7E2B49
3E3C8A37
3F520B1C
3E244135
BE257A35
BDC31487
BE64F15E
3EA3966C
BE89289E
3F358266
3D474539
3E0D2B2C
BECB2F23
BE522DD8
3E148A9C
BEA994C0
BE2F42FF
3DB2A7BD
BD6D7A57
BE30B34E
3EB382C3
BCA97397
3D46E7E6
3E39DF11
3E3D9664
BDC90C4E
BC32788E
3EB1D0C8
3E8224CC
BDFB79D9
BDFE7C8D
3E9ADF2F
BC1884C7
BEBB8583
BEA817FC
3D723AB0
3EEDE482
BCD32831
3DFE1FC1
BE8D1245
BDC93FAF
BD5E68A1
BDECE1C6
3E2F4CB2
3E9E4841
BDD6D656
3E83DAB6
3E774257
BE31565C
3CEFBF40
3D13E1CA
BC92CF10
3EA5E8B4
BEB2A887
BEAA54C5
3D7136A4
BE61AF3A
BED99F3C
BDFF71EB
3DA0A4A0
3F16DEFC
BE49DF55
BE5F3A58
BDED4C34
BE17DDCA
BE14AA11
BE6F5D35
BC27E73A
BEAE34FC
BDA38866
BEDA2C23
BEDDFACA
BE981D3B
3EECDBE0
3E0B252D
BF09A2F9
3D548777
BCC575C0
3E3DD228
BEC53A3F
BE10AD8A
BE06594B
BD521038
3E7DD54E
3EAC347F
BE8BCE21
BD056E69
3D3E8EE7
3DF9D66B
BD6EA63B
3E88D024
BE63F63C
3E65EB31
BEC481F5
BD0217D3
BD07852F
3DBE889C
3CD5BEE4
BE9BA1F5
3E16B3FF
BD1AE3E7
3E0964A6
BE121294
BC0D0892
3DD44135
3D328416
BBE47560
BD967EC8
BDDCCC8A
3C5E97D0
3E69463D
BC0897EA
3D80E9D5
BE923401
BE2CBFB1
BD0283D3
3E503FB3
BE2D0E56
3E08FB87
3E262281
BE19A565
BE9C3116
3D5798D9
3D822FF1
BE3FF4FD
3E6BBD38
BCEBFEC1
3E5FB507
BEA74667
BE7004FB
3CAEEC7D
BD6976BC
BE8F032A
BE8E2AC3
BC0D690A
BDFA31A5
BE8ADE22
BD16D2AA
BE33EE1C
3D96C7A8
3DE0CBF3
3DBC5155
BE3F2ECF
BEA117B5
BE0317AD
BE91CDC4
3C7F10ED
3E557BC8
BE047C74
3D8C81D4
BE587A4A
BE0AC3A8
BE433F42
3E2E9A70
BD60B4E1
3E06ADF7
BE29F7B6
3E437260
3B9D16FD
3DBEA5F8
BDE67AD9
3D02CD3A
BDF9DDC2
BBF3F530
3DCF1ED1
BCF04DDB
3DD58E22
3E17B5F2
BCAD3E92
BD23C537
BE18CA82
3D9B2032
BE939171
3E2C215C
BE372CD8
BC85CAB0
BDAC918E
3DE9081C
3E1A4ACF
3E9C445B
3E1C9E23
BDF93D53
BD000B89
3DAF1FDE
3E27ADD1
BDE86AD3
BE551E32
BD82C3CA
BE4FD263
BDDCAF2D
3C69B7BF
3E9156C1
BE600BCC
BE53F962
3DCD3D86
3C477575
BE74E4C9
3E0D3F18
BE0215FD
BCA44418
BEEE1028
3D5759EF
BD93C686
BE90FA37
BE4610AE
BD0B32CF
BE5B9FDC
BE0ADA34
BD174B40
3DD4DE7F
3E20C0F0
3E6E5ABC
3C9806F2
BDA46280
BCFEB28E
3D038F36
3D40C309
BD818DEF
3D366B61
3E072C52
3D1AC472
BDAEE0F4
3E67C2CA
BE987443
3CF1ED18
BE424852
3E4D6CB5
38734507
3C86D71F
3E6FC7A4
BE55896A
BE7071C5
BBEA9E6F
BE55FAEC
BE7A2D73
3EBF8162
BED4D057
3E4610F1
3E618CA0
BEAFC090
BE2E4D1A
3E1CB967
BED2B841
BE68B157
BD045DC8
BD32FCAD
BB698138
BDE399B3
BD448388
3DD4B7B3
BC834F40
BEE45671
BD9077CD
3E579789
BE206812
3DB1DEF0
3DC7A0F9
BEB1055C
BE0E136E
3E123B79
BE1D31FD
3E987208
3DD5AAF8
BF003340
BEE2B27D
BDAD31FD
3E39999A
3CD2AC75
BD98E10D
3D99DA9D
BE2A2CED
BEA83559
3E063737
3E8EFC9C
BDB5CAF3
3E0ED45F
BE3D8D37
BE2727DD
BDF64B66
BD549625
3BB020C5
3DEF26AF
3D686B59
BF03AB43
3E953027
BDA40BFE
3E547DC3
BE7DAF8E
3DB9C497
3DE6FF7E
3E12A77A
3DF886E0
BEB99B4E
3BA35936
3E80094E
3DEDB164
3E3342AB
BD8C918E
BEC5B2B3
BE14AA97
3D878C00
3D92FA0D
3DBB927D
3D40BFE4
3C4332F0
BE1A01AC
3DA9E4D6
3E60257D
BE8E4346
3D806B7B
3E2AB218
BD8C9EAA
BBF776C5
BECA3337
3CF6A2F5
3DF2599F
BE8B2A06
BE762BAE
3E07F349
3E3C6866
3E9D158C
3E25F5AE
3E24AF92
3DAE8D11
3E5DF8F4
BEED438D
BEF4CE3E
3D0BDBA1
BE21E1D2
3EBB22D1
BE02D128
BE10E497
3E893CCD
BE15BE1B
BCB0B9DC
3E2D0918
BCB035BD
3D960E95
3E908E9B
3CE60C39
BF165248
3E0AFB3B
3E45A89C
39C1FC8F
3EA9BAE4
3E658CD2
3E889460
3CD8FD5D
BEC201AC
3DE9BCFD
3E27DFE3
3E81F6EC
3E27ECBB
3E76084A
3E8377E2
BE634F83
BEA03926
BD907E17
BD31DB44
BBF87AD1
BDC1FFB5
3D810BE9
BD9F99C4
3D73ADE2
BE2DC7AC
BE6B22D1
BE8C03DE
BE4ACBC9
BEB174C5
3E511CB0
3E10CBF3
BE328805
3D96BA06
3EA0F0E9
3E2FDD23
BE7FD695
BE40C5A8
3D2CADDE
BE26DB0E
BED8F020
3E867DBB
BE6F87F0
BDA0DBAD
BE97C17B
3E8C243E
3D33F962
BDDD6A59
BD81387A
3D6C69B6
3DAFBDAD
3DDA89B9
3E4D81AE
BDB3636F
BE1159C5
3E0CB9AA
3DD74E66
BD9E236C
3E84AFF7
3E2678C0
3DB19E73
3E3CAB82
3E74C37E
BE9EBFA9
3D40C522
3D5F6988
BD38C869
3EA0AB2E
3E7952D2
3C53910C
BE19A06A
BD45D95E
BEB9AB6D
3E4E0115
BEEF9896
BD812B5E
BE1DEACD
3E27BF62
BD824C40
BDE0B136
3E2FBE77
BE10B956
3E3B0BBF
BE3E529C
BCC9AFE2
3EA09507
3E69E59F
BE89FB83
3D06E7E6
3EC84C8C
BD8CEB35
3DF18B0D
3EFF5BC4
3D036C9C
BC11B824
3E31A47B
BDA80C74
BB68EA3A
3EAB3EBC
3D9329C3
BE0B86B1
3DED740C
BEAEA37B
3E77D6B6
3DF35A86
3D9405F7
3E0139C9
3D83382E
BDDA2403
3DB8E53F
BD45B9E9
BDB9B995
3EAF392A
3EA01301
BD9EBC84
3E0738A4
BE7C8A37
3E56EEFA
3E95C2F4
3ECE1262
BCF9BBAE
3E35C747
BE64F334
3E01C194
BE6DD7AA
BE661D86
BEC96ACF
3DBECFEA
BE04A7F8
BE3B9171
BE501712
BDA21A72
3E44C3C2
BDF2495E
3E52D6ED
BD900E6B
3E81DC51
BF002214
BE0A4EBE
3D1F212D
3EB9FC09
BED01E69
3E8F96C0
3D1DF762
BE44217D
BD8BEC68
BE1D15F0
3DA01EEF
3DD645A2
BD36134D
BD3BA98F
BE636D22
BE418F3F
BC3B6ED6
BD371327
BCA949A5
BD3B2BBB
3E320254
BECC200C
3E31CAC1
3ED6770C
3D93E89B
3D933D29
3DA1BE2B
3E0F1E8E
3CE06530
BE1536D6
3DF5B35B
3E0B738E
BEB7648C
3E5E53EB
BE30A4E3
3E18BDEC
BEA82279
3D0B44A2
BD8F0CFE
BDB00F77
BEA6C1C2
BE8B293D
BE497F63
3DC57AFF
BE1F4624
BE8D5EAF
BE8905E2
BE134ACB
BCBBD9CB
3D367E41
BD581062
BE05DCC6
BE72ADC5
BE0C5868
3E64AF0C
3D8EB3DD
3D7F9E7C
3DAF78FF
BE6871A4
3DD14984
BD81B4BB
3E85BEA1
BDC3C643
3DB507EA
BD7928E1
BD6A63B7
3C794C88
BE561672
BE6E41D5
BD461E93
BE25B467
3E1CE0B9
BE5037D6
BE31B9FA
3E1D388B
BD908CC5
BE1E518F
BE4AF816
BE01650A
BDD0928A
BCEAB799
3DC486AD
3D6593A3
BD68C36E
BD7D0071
BDD5D2D0
BCCFEDE9
3E932CC7
BDF07E17
BEA2B389
BCAD1288
3E514057
BCF965B2
3E0F4880
BE54ABA4
BE58958E
BDECBFB1
3CC1D085
3E37C287
3E482236
BE003212
BD5288CE
3D7B46FE
BE221145
BEA4BC27
3DED62BF
BE84DE1A
BBB14EC2
BEBC8C2E
BE155C10
BE73E1CA
BE229521
BE6CE24C
3E3B3461
BDE12D77
3DFF9AD0
3CEF1FDE
3C2F0BF2
3E8A8BF4
3EA8D34A
BC4EBBBA
3E66733F
3C512019
3D983CF3
3E958ADB
BDA923E6
BC9FA333
3E5F1F15
3D0A2A91
BE44662C
3E0DD053
BDC0F777
3EAD5E8D
BE24DCEC
3E35AEE6
3D86EFC3
3D6F35E3
3DF00F77
BE1C8798
BD6FAB54
3D5ACEEE
3E109CC3
3D917A46
3D9585BE
3D95E636
3DB28E93
BDEE136E
BED7AFC9
BDC44AE8
BED3FA8F
3E78BD23
3DA26CC2
BDDC0A8D
BE4FD220
3CF00475
3DFE8F6D
3E4E3A7E
BEB00000
BEAD970B
BC9C53F4
BD840C84
BD1EFA61
BCB98634
BE04B3C4
BD025BFB
3D0D690A
3E9823A7
BD9FB7A6
BEB2BBAA
BEEAA412
BE17A4A5
3EEA6E76
BE73732A
3E9869A5
BEC63BCD
BEC96B33
BCA72EAE
BE80F6AD
3E34B902
BEADE2CE
3D997785
BECE7B81
3DECBD98
BD8467BE
BD738E6D
3E7FE79F
BE4E553B
BD2CA57A
3B6032DB
BDD8D9B6
BC2A25D9
3D986EC1
BE6457C1
3E15F6FD
BD776C48
3E8DAD54
BD305858
BE86132B
BDC745BF
BDCB8AE3
3E8EC637
BE91569F
BE6C28B3
BDB9B23E
BED6E45C
3DE57FB7
3D83D5FE
3D3D9A95
3D929995
BE44F052
BE3C13FD
3D94866A
BE96E675
3D503EA7
BBF911CF
BD3F50E3
3B0D3AE7
BE4D8F0C
BE844A1F
3D46D938
3C6F49CF
BAD79D0A
3D52FA0D
BE3B0186
3EAE32C2
3E31BB06
3BCBA733
BE1C3CE2
BDD804DA
3E7BF2B2
BEB7B54A
3E25857B
3E6BCE42
3DCEAA6D
BEBBE271
3B9F8C22
BF178AF4
3D548883
3E9ABA9D
3E98EE6C
BEF5985B
3C43F812
BD657215
BE0DBDB6
3DC3E7D1
BEB6D0F6
BEC7F0AA
3CCD4AA1
3E163A5C
BDF0E454
3E8ECF20
3E627D46
BE66F3B2
BF143394
BDB5421C
3C833615
3D11E42E
BEE5F395
3D29BCFD
BE2C26DD
BD134374
3D712F4D
BDA9E450
3E36C00E
BE074A77
3E119EF9
3DFF44D4
BE984D77
BCAD3C79
3E740703
BD9B938A
BA1AED57
3E6B8BAC
3D8158FB
BD8F8056
3F130EA2
3E4830E4
BE84E5B4
BE6FD86B
3E6D8CB0
3F01F655
BCE52589
37EAE18B
BE31CFBC
3E2626B3
3CE90364
3F02E70C
3D3EBBFD
3D510907
3D22B27D
BDBAC4F8
3EC5D723
BD96C1E3
BC2B606B
3A16FEB5
3CF418D7
3EC23AF3
BE58BB0A
BE64384C
BDC18EFC
3CF11D7A
3D1DD3BB
BE8C200C
BDD61134
3EC05FD0
BD9AEBC4
BCF56C94
BE025C3E
BD122EA1
BE7415F4
BD51C6D2
BD534699
3DB41398
3CCBAB65
3D5CA4B1
3D1FF3F1
3DED71F3
3DADD484
BD70867B
BD1E518F
BE950DAE
3EB5F3B6
BE733DB0
3D5B62C7
3D6EBA28
3E0553EF
BD03E319
BDCA02B8
BCC013EC
3D5BDF8F
3EBEF007
3F09F8E4
3E92D107
BD686834
BDCA22B4
BDAE28ED
BE92DF93
3E930878
3D8C7086
BE909ACC
3E9B7F9D
BCD425F2
3C9F1066
3D6DF71F
BDE5BD94
3DC71716
3DDF2DC3
BE803383
3E3C1B97
3DA7A850
3E2283D3
BDC8EBCC
BE7B4203
3EADDE37
BDEC1659
3E314E7F
BDD8F473
3ED96E9C
3E45479D
3E2E66CB
BDBC126A
BC8AFC48
3CA003AC
3E18EAC0
3E32F2B6
BED1C77A
3D492685
3E7601BD
BE707D0B
3DBEFE0D
BE2335D2
3E8BEFF2
3DAF405F
3E038822
BCBCCD10
3DC63E8E
3C6846A6
3D5246BF
3DA659D1
3D8D3309
BDDD3BB0
BEAD946C
3E90FD5D
BD82ACB8
3DD112FD
3ED94B38
BDC5FC7E
BB3AC711
3EE0398A
BDF3CA32
BD8CF41F
BE81A3B1
3E963FBC
3E914AF5
BDB02E66
3D179D0A
BD95171E
3E042529
BD2F7C24
3DE9B8CC
BDF0489D
BD6759AB
3E0790B8
BD09BA5E
3E7A2DB6
3DEECE9A
3D910B20
BEB2D4B2
BE297397
BDEA7696
3E8595BC
3EB24AF1
BD056D5D
3E962A1B
BE98F4F9
3E3D859D
BDCAE07E
3DEA12F9
BB92BC30
3DD0B524
3E45FF1E
3DA05708
3D11FA33
BC03CF2D
BE54E443
3E4082CF
BD483772
3E44B5DD
3E812AD8
3CE83E42
3E1466B2
BDFBC87E
3CDF0B28
BE02D01C
BC66D15B
3DD825E1
3E7D08D5
3D9C3C5C
3AE30447
3E2E05CD
3CD8DBCF
BCBF1C76
3C9CC31A
BD214163
3DA7B4E5
BE3617C2
BD8027D9
3E8838E3
3E2A7E31
BD069942
BE12D0E5
3E570692
BCFD73C9
3DF965B2
BD0A30DB
BDA2FD76
3E03F078
BCA4CA4F
BE840B35
BD52849D
BD5DB552
3DC8E044
3CBD512F
BD4D306A
3E4B04EE
3E68665E
BD75D9A1
3AD434A0
BDA1797D
3E367664
3E81E59F
3E043394
3DC841EE
3B449BA6
BE499E0E
BD91B9B6
BDBC9603
3C83A53C
BC8CB4AF
BE15AD54
BD8C40D1
BD2DF2ED
3E819A20
BD07EAE6
3E97E36D
3E127F1B
BDBAEBC4
3E2EE675
3D886DF8
3DAA64C3
BE0603D5
3CB53D64
3D2B4D8C
BC62046C
3DE1AEF7
3E06A876
3E4E3C53
BD8EA183
3E846DC6
3E0A3AD2
BA86594B
3DCE43AA
BD4C2F83
3D0CC144
3CEAFEE7
3E66687F
3DC10B63
3DB82FD7
3E709F62
3DC58794
3E5C4BD3
3DDF090F
3DC2F599
BBED99CC
3E20A56A
BD656367
BC87DF5D
BDB0EA18
3E24F2AE
3E052D23
3DA36439
3DA2C669
3E26659D
3E3DBF8C
3EACD163
3C800000
3E11693C
3E54E1A4
BE1B6417
3DA3760C
3E0121AB
BD774795
BDEA105A
3ED17657
3B20F4D8
BD6AA8EB
3E486A4D
3DF95A29
3E93DD76
BC43D252
3E8330D7
3ECEB032
3E7244E9
3DA25B75
3E2F049B
3E5DB9C7
3E7739F3
BE1ED5F1
BC165F52
3D5E8E61
3EA57061
3E97DAE8
BC12FB1A
3E6415B1
BE1DFCE3
BDB80560
3E492EE8
3DBF761D
3E54AA11
3D8285EC
3CF88B97
3C94FF00
3E48EC53
3E03FF69
3DD4D37C
3EA6EBF6
3D9B64E0
3D28EF78
3E992AFA
BD478A6E
BDEEE393
BD897636
BD0959E6
3D666773
3DF82774
3C7993D5
3E141D4B
3DB9817C
BE125AAB
3E20E5A3
BCF3B214
BDD3F63C
3DFEDE12
3D7D6840
3E819EB6
3E2C0592
3E04C943
BD141D8F
3DA5A922
3D5233DF
3E2E19FC
3DACF41F
3E93B8E5
BBDC22AB
3E575CD1
BD0FDB0A
3E4DABE2
3E0D2ED8
3E38C869
3EA98FE7
3E4E2B06
3E5924AF
BE7838C1
BE68F4F9
BE82278D
BE47E308
BD1CBCCF
3E85B4AB
3E68CDEA
3E1FD9BA
3E5CFE15
3DB06DD7
3E77C02B
3E9AEFF6
3E102689
3E87AB54
3E701E26
BE787768
3B5E4C51
3E88D1FA
BD9142B3
3E82EDFE
3C5A37EF
BDDE2BD0
3D01B75A
BE507AAF
3E0E95FB
3E273E25
BDB4FC61
BD340D4E
BDB6F86A
3C9C022A
BDED5B68
3D5E81CB
3E6D2392
3DBC8E26
3D88F53C
3EB97072
3EB17EFE
BE36CF85
3E47FF58
3E179B78
3EDD38CE
3D6F1562
3E64FF86
BDF8A6DB
3EA0852B
3E807981
BEDBDDDB
BDB8C21E
3DAB3A26
BEA4A3A5
BDCCD63D
3DD5B4EE
BEA20408
3913D966
3D99C497
3BBB1AF4
3D832CA5
3C4B3A26
BD832767
3D85CC42
BCEEDAA9
3E35553F
3E63E037
BE870C13
BE1B7846
BED817B9
3E3A1D75
BD959CD0
3DD8AFC4
BE39B520
BE4235B5
BEB3F466
BEA64990
3E3D8948
3E029C34
BE71F3A5
BE652D23
BD9BBB62
3E60242D
3B3A6267
3E252935
BD56A6A0
BE52FF4C
BE4880D8
3DF5243A
3D2C2BD8
BE0AD03E
3D4624DD
BCE3BEEC
3D8E1262
BDE8112C
BDAB777D
BE644A1F
3E35DE59
BDEC6C55
3D912E41
BDDAC0C6
BE1C5868
3E327807
BE4CB9ED
BE017050
BE636B09
3E3FD7A1
3DF0C2C6
BDF31B15
BDFBE3C1
3CF51ACA
BC33C819
3D62E4D2
BE306530
BE957FFA
3DE81D3B
3E885D31
3DAF544C
3E2C29BF
BD55DC40
BE032A49
BE8FD04A
BD7B2AAE
BE2F1B26
BDCC929B
3D0CC576
3E1F4235
BE527675
BE7464DC
BF078338
BE2BCD79
3E98307F
BC8DFBD7
3E83C0C2
3D0DFBD7
BDA91B82
3E80B503
BA013CAC
BD6413DB
3E54A7B5
BD85DA6A
BDDD9A0F
BDC5EE57
3D3C6973
BDDBAB22
3D1E4D5E
3CDA78F2
BDD4727E
3E6A93F3
BE1053A0
BB0A47ED
BE1E9F6B
BD235A42
3E96B50B
3D31FAB9
BE41CE29
3CE0ED81
BD938477
3E5B84DC
3E467F91
BE464064
3D7B9BED
BE853CDE
BE24A904
3CB3B96B
BCE45E4E
BE2D97F6
BCE514C2
3D166CF4
BD73BD9D
BE89F1AE
3DF837B5
BEC2133C
3D06F263
BD883127
3DDC6E2B
BE3804DA
BE754153
3D0473CD
BC8461FA
3C8EB463
BE04B1AB
BE9D8905
BD824CC7
3CABFB9C
3E974688
3E495F24
BE16B010
3D38DA3C
BD340A28
BD4296B3
BDFC0C20
3E05DDD3
BEDB6A40
BD663B69
3E80EE07
3DE19653
3E576C05
BE17E2C5
3E177B39
B9C1FC8F
3DAD8772
BD0EFFE3
BC8EF566
BD866A98
BC0A6549
3E924F22
BD749CF5
3D4B89D7
3E5B7B6C
3D6598E1
3E20A88F
3C955F78
3DCC0BDD
3CFF950C
3A66F2E9
3DA8954A
3E81758E
3DE75819
3E907421
3C289763
3E5C792D
3DD9B6F6
3D77C244
3D34B839
BE402BC7
3E2DC9C5
BE546024
3ED7FAA0
3E4D5CFB
BE240182
3DEE9AB3
BDBD805E
BC18FE69
BCE0F1B2
3DCDC1A4
3CD48CB5
BD115AD1
3CFD2C7C
BE61AE2E
3E1E78E2
3DD8ED1C
3D7CCF29
BE2616F8
BE9CACF3
3D37739F
3E0F1950
3DB67903
BD67631B
3D3F0026
3DE276B8
3DDA1E3F
BD00FBA9
3D6DD69D
BE3C2CA1
3E2F81E9
3DDCF2D0
3E8B126F
3E8B0E5E
BE88E2E3
3E9FEBD1
BDD6909B
3DCFE586
3D9E59F3
3E0B7282
BEC06B9C
3CC4C597
3D4B20FB
3D02F1ED
BDA00E28
3D9EE350
BDC09247
BC5BF8BA
BC63DA30
BE466278
3E456F33
BE2DCCA7
3E283F92
BA0BB906
3EAE8790
3E57C676
BDD44D44
3DE5A2D7
3D61D324
BBCD9E84
3DB61BB0
3E0E0547
BC015A08
3D908462
3E361848
3D290364
3E3244A6
BD7B0E5E
3E0E963E
3EA95C64
3DD97D4A
BE857082
3E7C6DA4
BCD26FA4
3D40F883
3E62BE49
3DE1DC0E
3E515981
3BC55433
3EAC8DA0
BE9CC921
3E1D9381
3DE51C19
3D21CAC1
3E8E835E
BD4CC89B
3E11D862
3DC38759
3E24EE39
BDB50FC7
BD13048A
BDBAA583
BEB54F37
BC8E7BC4
3E01FA76
3E1103C9
BE0EA077
BED9205C
BE0A033E
3E6FFC11
3E700475
BD70270F
3CBF290B
BEF034B1
BAFECDD1
3C57BA67
3D9600F3
3EB44AA5
BE989C1B
BD366F93
3DCF598A
3E824F44
3E0460AA
BE8CCE3E
BCFFD60F
3D844956
BD367D35
BD7A0B5F
BD433722
BE866751
BD9E108C
BDB68B5D
BEAE3E08
3D4CEE5B
3E7A511A
3D79CA5C
BE3D2F1B
3E4D62BF
3E6549F9
3E0F8162
3E15BB38
3E1FEDE9
BD76EB4F
BE1F8DB5
3BB8B695
BE403FB3
3E5E4E27
BD9D6F97
BE9C84D7
BD467BE5
3E7C7582
BE00AC3B
3CB90A78
3D95E28B
BE541850
3D251B0D
3E7DBBE0
BE3A2D30
BED2EDBB
BEE17311
BB64EAD1
3DA26FE7
3E53A472
3E4790B8
BD2B8D82
3E8E86A5
3E89578A
BD996F22
3DEBD662
3E903FF7
3DAB2F23
3E8C06C0
BDDF6D33
BEAB5569
BE3D4025
BD880BED
BEA16DD2
3E43E89B
BDBD92B8
BCDEBB77
BD4EC743
3E5F67B2
BD942246
3DDF1B69
BA60EB68
BF12656B
3E3EE526
BDF251C2
3DC8DEB1
BE5FB481
BDA39581
BE725D4A
BDCD106F
3E134FC6
3D64FEBD
BE959792
BD53FE19
BDA0B88D
3D8C7432
BC728C7A
3DFC7D5F
BEDEEF80
BE3584F5
BC2497FA
BC69C454
3E485165
3DE97204
BD13CAB8
BDDD16FD
3E37503C
BE411D7A
BD404FB1
BED92A0F
BE507FED
3E1AB4FA
BCFE23F2
BD16AF04
3DC5CD4F
BCBED0F6
3DB78AB1
3D800E28
3D61AD64
BE111CF3
3D353D64
3D91D042
3D265CF6
3D70F16F
3D9DD873
3DD0E454
BCC8BC9D
BDBAE579
3CEB1811
3D795B36
3E541462
BD7723EE
BE3EE8D1
3E277AF6
BD822813
BE395DD5
BDD7D73D
BA20F4D8
BDAFCDEE
3DC5321E
3CED6BA9
BC39CB68
BE6521DE
3CEF5A96
BE14FB12
BCE833C6
BD72EBE6
3D1B64E0
BCF71A7E
3E536BD3
BEB9465F
3E0D7BEA
BDD7F951
3CF54D1F
BD1A4BDC
BC9BE09C
BDB6EEFA
3D88F7DB
BE091F71
3E488F43
BE061F19
BE20CF5B
3D0BA40E
BE4A0CF2
BE889C80
3E8EC072
3CD5AE1D
BDE548AA
3E811CF3
3D2480E9
3D0BCDFF
3E086057
3E2AD8E4
3E41DCD7
3D9C25D0
3C2643CC
3D99157B
3DCD8C2A
3E6B2F23
BDE8B86B
3CF0D845
3E17CFE6
BD99B90F
BC64C0DF
3D078961
BCCEA290
3D8FCD68
3D5B078E
3DCFA82F
3CBE22E6
3E8DF740
BE5C1CE7
BD8F06B3
3C8FF972
3D1E1B09
3E03C3A4
3C9F559B
BE288DF3
BDED99CC
BDA65E89
BD7B29A2
BD4F0521
BE2B0C02
BE993A0C
3DF09D06
BE6DAA93
BE005F6C
3D8E66CB
BD47E282
BE3C9D17
3E50E779
3C62541E
3E39C3CE
BD67CD03
3EA56883
3DD744F6
3E00C027
BE0F4C6E
3D437718
BB52C387
3ED3352B
BDCDC2B1
BA7B6567
3E1F26AF
BE8AF1AA
BE46BACF
3C8C88A4
3E40678C
BD2F2C73
BE2B26C0
3BE0DAA1
BB9B1FAC
3E629D41
BE37060C
3E10C283
BD2A78AF
3D934268
BB6410B6
BD56D19E
BD737EB3
3E1F3DC0
BDD95358
BE154046
BDED1202
BE27ECFF
BBCE9A2C
3CF6AD71
3DF5275F
3DC64990
3C8C0CE9
BD3D74D6
BDA452C6
BE079703
BDC7D88C
BE3CAF71
BE5FF21B
3DA2BBED
3D8B6178
3E4CA4B1
3E2FA483
3C2EAB7A
3E042FE8
3D727781
BCBED95A
3D903D14
3D92CBEA
3D8B0100
BE411EC9
BE50DCFD
3E072FFD
BC74C2B5
BE427957
3E3F50E3
BDD78E5C
3E1CE704
3E33A366
3C6B6391
3E22799A
3CAE59B0
BD638434
3D04FC1E
BDD99C39
3E17164C
BE16DCA0
3E152AC7
BCE4F766
BCC7AE14
BD9C6D1E
3D1D041D
3E3E8AF8
3EA2F9EC
3E372218
3E39ED7C
3E1A7504
3E5E8AB5
BE76D00B
3D8CABC5
BE0F227D
3DD8AEB8
3E906983
BD0FE261
BE33A92A
BE0EFC37
BD100F77
BDFA187A
BDCB32CF
BE2C1509
BD18CE2D
3DFE236C
3E715E7D
BD88EC53
3DBAB863
BDFC4977
BE357710
3E427419
BE375E20
3D6528AE
BD9102BC
3DD9591D
3DB1C5C5
BE22DA12
3D6CFC83
3E08BC17
3E30902E
3E4260F6
BE1E4F76
BE5BC9CD
3E29CAE2
BE10B4E1
BCE266FD
BC5E1E2E
3D772E6A
3D981C71
BE0EBA28
3E2780BB
3CA56580
BE088C1E
BE6BAA9B
BB5C11E4
BDAC7B03
3D59AD86
BDA470A8
3CAE1EF7
3E3C79B3
BDC09C3D
BD5682F9
BD0C814D
3E2806AF
3E2DCCEA
BDE1C3F0
3E0AA64C
3DC46E8F
BD929BAE
BE09AB2A
BDD07182
3DE221C9
BD05FD05
BD882C6F
BD47E282
BD09E450
BD80A527
3DF81F10
BD4C33B5
BE18793E
BD32A5A4
BE13EE1C
3D7A15DB
BD46B591
BD0C0592
3DA6162F
3E62EB1C
3E9B1B7A
3C4564F9
BD554003
39B0AF60
3E8FFED2
3DA9CB25
3D50092D
BE2D388B
3D6A4010
BE4F255F
BDE8283D
BDDD651B
BD161A1E
BD4A3D71
3F073094
3EDE1262
3DA55433
3EA2176E
BD000B89
3CFE2E6F
3EB0EEAF
BCD0F627
3EB82F30
3E5D0B31
BDA41DD2
BDDC2A02
3B5AA0CB
3DF3C57A
BDD2745C
3E6F9F45
3DC5FFA4
BDC2070C
3E03022E
3E5620AB
3E92E83A
BCF34938
3E7B2314
3DAB6BF4
BE61743F
3E6DBD30
BE570DE9
BE01B6D4
BE7C07EE
3EA19D02
3E289B52
3D1FB939
3E294C88
3DBD4F16
3E98BE51
3E559CD0
3E8CE5B4
BC96DD27
BDBBBE01
3EC2830A
BDD16E37
3DAD2029
BC9E7FB2
3E9AD7F9
BE44B663
3E7F78BC
BE0CCA2E
BE2E7818
3DCC8FFC
BE88C0CF
BE08EC96
BDFCCEA3
3E8F54B0
3EB08744
BAC868BA
BD3C3505
3C26C1A0
3EDB52A8
BDD4D50F
3D0FBEBA
3E31ED18
3EA8FFB9
3D9EE808
3E8D4281
3ECD73C9
3D825E9A
3E1CF5B2
3E87A744
3E8C13DB
3E24384C
BDE94AB2
3CB05964
3D42DADC
3E13369C
BD8B495A
3CDA9004
3CB9FDBD
3C1817B9
3851B717
3E279182
BD18409E
BD99C5A4
BD771FBC
BE8D0614
BD7F8DB5
3EAD6649
BDB01755
3D983E85
3E86F284
3D1EFC7A
3C417226
3E4CC964
3D9405F7
3ECEDA88
3D2C7432
3D11A006
3D78C650
3D8A209B
3DBECCC4
BD8156E2
3E3C2BD8
3D9E2047
3B24C1EC
3D66C3B9
BDBA8262
BE9899BF
BE092EA5
BE298959
BD811FD6
BD7C0A07
BDA7E847
3DCCEFED
3DB78F69
3E6F7058
BE5BCBE6
3D119BD4
3D8502EF
BBACD9E8
3D568A50
BE246413
3D4D1D8A
BEB7676F
3D0DDF87
BD83A6CE
BDC79DD4
BD122318
3E309E99
BE0B9ECF
BD8809D5
BE860BD4
3E1D82BA
BDDA6267
3E94A6EC
BDCA2E3C
BE90F5A1
BE0C5B4B
BE95B5B7
3E2E59F3
BE247E8D
BE580A5B
BD69142B
BEAFC19C
3E68E193
BDD424E6
BE34B72C
BE315161
3DC0D456
3E70029F
BDDF9E7C
3D78A6DB
BE9E2952
BE18AC19
BD15831F
BEBE4CB6
BD986983
BD34D7AE
3EABF488
BEA08095
3D48893B
3D14C87A
BE8E13D3
BE00B029
BE4EDAEC
BE93A5A0
BDE49881
3E55158C
3CF9FA98
BE84B988
3D96976C
3DD3AEEF
BE9D1090
BE370047
BDFED741
3E47CA64
BD70D62C
3CE5FFA4
3CFEFE0D
3E188095
3E249CB2
BE45082D
BD4A0D35
BE64C2B5
3CDC3DEE
BDB059EA
3E07F6F5
BE4EAFEE
BE489763
BDBE4DE4
BE29F490
3D87852F
BCFF23CD
3E4B777D
BE1DBDF9
BE6FAA47
BE82233A
3D9DA61E
BC6EDCC2
3E55CF68
3E19A88B
3DFF61AA
3C0DEF41
BD1C3EFB
3C764CF9
BDCECE14
BDF1BD62
BDDED6BB
3C6D2029
3D2FD75E
BD2A1944
3DA83233
3DA400FC
BCD6BEBE
3DA10279
3D5C054F
BE4DB4CC
3DAA4096
BE9A9C34
3DBB2789
BE0951C6
3C63864D
BD4C1872
BE9E605F
BE1A233A
BE708787
BD111CF3
BD28027E
BCE77D52
BCF48A16
3E0D5A5C
3D9842B7
B9C521DE
BD89320E
3D1A8CDF
3D9FA1A1
3E8EC2CE
BD6A3BDE
3E40B9DC
3D560200
3E306A6E
BE82E05D
BDEA9824
BE3F127F
3D3BF50E
389B3073
BD8318B9
BE473083
3CD23B36
BE0D744F
BD200E28
3E051D69
BE91CCD9
BD827957
BE478317
3E118FC5
3E0CFBFC
3D3B2032
BDD10D39
3E86D0F6
BE09207D
3E30E1F8
3E12FBE3
BE581733
3D46A6E3
3CCEBDD3
BE60FD3B
BE58A116
BE256E26
BD46F156
BDD8151A
BDBB6B2B
BDB30E80
3E8EE58A
BB48CD64
BD561911
3CF8BDEC
3D848063
3E5345D0
3DE8943E
3DE692F7
BE37F130
BD55AAF8
BBFBFC65
3D82DA55
BDA7DC38
3E3CE39B
3E6DA017
3D3B9171
BE174081
BE72541E
BDD9DE48
3CCAA971
3C3C9CD4
BE934A45
3E62830A
3CD657FB
3E0B5FA2
3D6C258D
3BBBA98F
BD7DA943
3DDA4830
BE047F99
3D9C1A48
BEA7177A
BD6ADA34
BC50D499
3CFF3494
3D06DD6A
BE12C1F4
3BE27E0F
BDEDCEC0
3DCD83C7
BD40A06F
BE488872
BCDEC3DB
BE48DEB1
3D04A948
3E0A5376
3E192CCF
BD4B838C
BD9EC56D
BD6338B4
BE4C0768
BCC10731
3DE48388
BDC894C4
BBF7F499
3D84F11B
3B349E02
3D06E5CD
3E9CFEDF
BDECD185
BE8F1DC5
3D96CDF2
BC16CC60
3DE4217D
3DB6D118
BE46088D
BE414057
3C423748
3D8D0C3D
3D279DD4
BE81BBF1
BE451EFB
BD45DC83
BDEA5376
BDA0D994
BD0D77B8
3E6D490E
3D238A7E
BD2412CF
BC25DF22
BE13BA34
3CA8869C
3D49C800
3EA89CC3
3DDA92A3
BD40B567
BDD01C0D
BE277532
BB219C9D
BB940BBB
BCC3B928
3D0D5E8D
3C818612
3E31409A
BE162D84
BDB18FC5
BE0E30CB
3CC92791
3D6582DC
3CAE7D56
3DA46F15
BE0445AA
BDAF1349
BD9ED7C7
3D9B22D1
BD8EED03
BE3C69F9
BD62AD3F
3CB6CDF2
3BAD3E92
BDF72581
3DE43BB4
3DBEDB73
BE5D477C
BE10778A
BE73A7DB
BEBBF163
3E3B04EE
BE198916
BDAA2C23
3E2809D5
BE77F6F5
BC7D08D5
3DA86C66
3D9BBBE8
3DB09FA5
BE084BA1
3E380BAA
3E144D44
3DAAC7DA
BE936E93
BDA71A3B
3CACF0FA
BC91A75D
3E2E0F80
3DFE974A
BD5E6BC6
BE77EFE1
BD506141
BDF3CE64
BD35AD97
3E5A3D2E
3D10BFA1
BDF9A06A
BE371972
3BF4CF4A
3E81B888
BDAA0664
BE1F7FD0
BDEB7F5A
3D5899BF
3D336DEC
BD217B0F
BDAC27A6
BEAF6599
BD45681F
BE5EBE9D
3D37079E
BE841030
3D53D966
3E17FB6A
BE122142
BC5FEB8E
3C915161
3D6EF2C7
3D00F451
BD9BA12B
3E068987
BD8984E4
3E4DB50F
3C8913A5
BE32938E
3DA6E222
BD87C73F
3B286D72
BDCF123C
3D9C94F7
BD84766C
3D95A858
3DA2352F
BE167D35
BD9776C5
BE2F0E91
BDC60675
BC51BF7B
3DADEDAF
3E16AFCD
3CDB1423
BE214270
3E078EE3
3E39A2C6
3DF90F30
BEBC9386
BE4EC28B
BDF50CA2
BE68EB03
3D942A24
3DC379B7
BD80D4DC
3E036695
BE0757D6
BE650B95
3D638DA4
3DA5BF27
BE6F3882
3E19C454
3D388EBD
BD900475
3DD139C9
3C9DCB58
BDA4C836
BD1F223A
3D51A650
BE0ED3D8
BD5D2F1B
BDCF2303
BE15896A
BE706D94
BE3470A8
3E084EC6
3D9CE0FC
BDFB03E2
BD17C6FC
BD8AF816
3DADD3FE
3DFE0158
BDFA1661
3D38F041
3DF4BCF1
BDC21D97
3E4BB44E
3E26049F
3DA213A1
3EA4F95D
3E057C91
BCBBA12B
3E3FFB05
BE093144
BE93C255
BC445027
3D28869C
BC47EAE6
3CFB9E06
3E721816
3DDB70EF
BCD5C52E
3E93E597
3EA22963
BDC14941
3DE0B34E
BDA822FF
3E5BCB60
BD4B9991
3E5C1F43
3D1A2835
3DE3AB00
BC95DD4C
3D6D4B27
BD8D594F
3E4EF1BB
BD38B7A2
3E683D79
3D90507A
BDFF9F88
3E838D3F
BDD885D3
3E5A28FE
3DDEE914
3E04317B
3C849236
3DD785F9
BDD6DE33
BDA99E0E
3DCF66A5
BD324E9C
BE445671
3E89932D
3D4BA733
BDB6CB53
3DA5BD94
3EA433B5
3DA400FC
3D0EFCBD
3E466CF4
3D41882B
3DABFB9C
BD93C925
3E04ABA4
BCEB1C43
BDAC2F83
3E485597
3EA759AB
3DD01B86
3B3955F8
BD354196
BCCCEC42
3BF1A198
BDBDC37A
3E9F867F
3E0B2C41
BE886AB1
BD272757
BE465A14
BE757082
BD8E264E
BC0A0D35
3E9F9F23
BE60BDCB
3C65AFF3
3C13532E
BDF50A03
3E803C4B
3C3024F6
3D849668
BD256473
3E75681F
3796FEB5
BE398F60
3E61EE24
BD56DB0E
BD82CFD9
BD8C4EF9
BDCE1262
3E04156E
BC85C465
3E1B42CC
3E3E85BA
3DE1EFFA
BDBD0A67
3E692C8C
BE55CD92
3D4ECC81
3DB8C437
BDC9A672
3E9DADB8
3E4C7B46
3D106573
3E21D4FA
3D906AB1
3D864346
3E8E31D7
3E80487C
3E68815E
3E39F0A2
BDA219EB
BE44C7F3
3C851EB8
3D4BB3C8
3D2AB799
BD5184C2
3CEACEAB
3D6089E3
3CF72713
3E19181A
3C6D5F14
39606530
BD002AFE
3E066BE8
BDF7AB32
3E2300DE
BE083904
BD809353
3CEB8F9B
3E157796
3D6EFB2B
3E7FB8B2
3E0C3DEE
BDD192EA
BB49C90C
BDC76189
BE177C46
3E343AEB
BD0D477C
BE227FE5
BD120D13
BE147BEE
3DB9F1AE
BD84D7F1
BD0AEEA6
BDF511E0
BE3600B0
3D0EA5B5
BD0EF34D
3E524B77
BCB3B107
BDDA6480
BE4F4385
3E0353F8
BBB4E11E
3D4FA9C1
BDA74320
BC9E7104
BD801F75
BE0FE197
BCE0E304
3E83517A
BD76188B
BD85FB72
BDC6F588
BD586120
3D9CF13D
3E20F2BF
3DD20E1F
3E21B5C8
BE475600
3E342E12
BDFA9542
BD8BF099
3DF61459
3DFDE615
3E49D4D8
BDF614E0
BC934CE4
BC081A15
BCCAAB8A
BE4AA9B5
3E5D666B
3E1CBA30
BE1A8588
BE202E66
BE43150E
3D810A57
3DCA8EB4
3D865BEA
3E0A94FF
BD320D99
3DABD4D0
39C5A815
3C24052D
BE1D76EE
BE47F77B
3D12CADE
3E077F6B
BCEE6538
3DFD7A9A
3E2961C3
BE1153BD
BD1143BF
BD855864
3E721A72
BDABBC2C
3E1F455A
BE5C7FBB
3CF3C925
BE040853
BDC51DAC
3C8E92D5
BE484C6A
3D395B36
BE0820E6
3D9EC5F4
BCD097C8
BE11CD1C
3DD358F3
3BB92C06
3DBB4CC2
3E969CED
3E629803
BD317482
3B80B674
3CD8750C
3D4230FD
BC8A6FC6
BE12BAE0
BD67913F
3DC8C048
3DD762D8
BDF47CFA
BD2E147B
3CF0B6B7
3D170825
3DAB3A26
BE0A3593
3CB74BC7
3D47EE0B
3D6C1F43
BD7DC161
BBE38A7E
BD873472
BDC7FDC6
B8C0F020
BD139219
3E50828C
3EA00B67
BE299568
3E20BC38
3E0F4129
BD82C669
3D6BEDFA
3EA172AC
BDC56A38
BE20AFE6
BE807464
3C67BC3C
BE23E5FB
3DBFA7EB
BDCD8341
3EE23A08
3E81476B
3F14D877
3E94C122
BE55B531
3DCF82F5
BD96FD22
3E4EFD87
3E4FDA83
3C72ECF2
3E642917
BE05A9EB
3D8286F9
3DF84FD3
BE3CB8E1
3C6CCC47
BE9A921D
3E2209EE
3D9C560C
3E54C76D
3E96FB6E
3DB03750
3E8C15D3
3EF278D1
3D9F1AE3
3D85A815
BE502CD4
BD11D367
3D1360D0
3E45FAEC
BD7A3FCD
3C97B528
3EB82F73
3DD23FEE
3E9C0A8D
3E3DA512
3EB99115
BE09EB64
BDE70EB2
3D9F9054
3E67B4A2
3E8A3098
3C0DAC26
3E8C827B
3C1B23DD
3CEEF805
3D63DB3C
BB243BB4
3EA8828C
3D26C7EB
BE981345
BDC9E12A
3EB6833C
3EC945D8
3BA44C7B
3D25A251
BC87A4A5
3E1307F2
BE20FCF8
BE17D6B6
BE12D7B6
BD6B97FF
BC21A501
3E1F05A7
3D1B2B34
BE1D37C1
BD81FEA8
3D5C0A8D
3F10729F
BD2AC42F
3ECF3EEE
BE813EE6
BD3542A2
3EB6BAAE
3ECC7DE5
3DE6BB56
3D86EFC3
BC632A06
3C8DCFCC
3C0127B3
3DA1E14C
3D0C825A
3BC11A11
3E18C005
BCA98CC1
3E97E1FC
3C85E5F3
BD91CDA3
3E1462C3
3D3D1AA8
3CC51DAC
3DA4D1A6
BCC06C01
3DD7A3DB
3B954A80
3E85FAEC
3BE09FE8
BD657753
3DD9389B
BDC4113C
3DDCC7D2
BC7D2E94
3E5888F8
3DB0D520
3E051D26
3D059642
3BEE84AD
3DEF5BA3
3D04028E
BDBB05FB
BD9A2403
3C5E657C
3C7AF859
3DC0E304
BED69814
3E8F394B
3EA835BD
BC1CC74C
BCF24B77
3E319C5A
BE459E1F
3DB375C9
3E93D3C3
3EBBE7B0
3E2799A2
3DCB0186
3CA80AE1
3E9C1440
BEB1F1F1
BEF472E2
BF31BC45
BE852503
3DECFC83
3E0DA598
BCC5CFEE
BA0BB906
BE39934F
BD2B65AA
3E4CC682
3DDE1112
3E583340
3D35EC81
3ABFC222
BDB4B72C
3E2CE747
BA2D03DA
BE8F3CD5
BE9DA72A
BE88E219
BE268B1A
BEECF52C
BF126C6E
BC3A01EF
BED2133C
3E4B32CF
3E95AE3E
3E060392
BEEBBADC
BE892DDC
BE10BF1A
BD90813D
3CF3FD93
BEA2B192
BE92D2FE
BE3DAB9F
BD0E2E2C
3EA8D413
BEA4FC61
3EB22C45
BE737B8D
3E1FFC54
BEA3A3CA
BDACC250
BE4F63C3
3E96833C
3D9E80BF
BE72452C
3E7B9303
3E962FBE
3B170F7C
BEC4197E
BE841616
BDF648C7
BE97151E
3E5BC947
BE42EEC8
3E642EDC
3E29B739
3DDBADC1
BED93BE2
3D0851A8
BE923A2A
BE8C28F6
3DAB723F
BBF661F2
BEB54B6A
BF10F0B7
BDD7670A
BE020C8D
3EABBE66
3E31947D
BEDC217D
BEFA5072
3DDC24C4
BE3F4E01
BCF3929F
BEAE90BC
BE0E6D59
BE1A615B
BE57D3D4
3DDF1D82
3E060631
3EA417EC
BF0C3EFB
BD48626F
BE3D46F6
BD86C97E
3D596E9C
BEBF54F3
BE4924F2
3DA7ED85
BEDCB967
BDCB5675
BF0DA7C1
3E437479
BBCFBFC6
BE0724B7
3EB0E347
3E1DF655
3E2DECA2
BA8EDE55
3DBB7953
3D87AFA7
3E97062D
3E795897
3CA6ACA8
BAEEF1BB
BD64E9C4
3E1CD749
3E61C8EB
BF054120
BA7FDA40
BDBDCAD1
3B920C07
3E0EC461
3E12FE3F
BD27FC33
BEB23897
BDDECBB8
BD99999A
BC36A1E8
3DBFFA3C
3E67F562
BDCDC012
3D625311
BAE38A7E
3D4E0115
BDC3B0C4
BD2A3593
3E1DFB50
3E4BA01F
BE1B85A5
BE253112
3E151761
BD85BB7B
BB7722E2
BD9B773A
3E67ECFF
3E3A3B58
BE49CA9F
3AF57F73
3DC06184
BDCCDFAD
BDF1600F
3C752B91
3DA5A922
BBDDF00B
3DBD7F52
BD29BCFD
3DC7E38F
3DB85836
BD769B9D
3E20E0A8
BE437260
BD266CB1
3A14E5D6
BD86C1A0
3D82A77A
BD4F53C5
BDE791C5
BD848F11
BE2EFCBD
3E686F48
3E3060BB
3C973322
BE0E8CCE
3D00A5AD
3E288D6D
3DE37CDD
3E1E3C10
BE459147
3D7D4281
BE4B34A4
3E392147
BC279BBB
BD72BDC2
3E25CBBC
3C4C89B1
B88205FF
BB20D34A
3D54D2F6
BDCDEE35
3E9D28F2
BC9A5658
BE3B2CC7
BC94983D
BD31C326
3D91CC96
3D1AB29E
BE40574B
3D82C775
BDB4F7A9
BE07B784
BD503FB3
BC926202
3D41CE6C
3C6FE0CE
3E478E19
3E911A54
BE33532E
BE304E62
BD0E9D52
BDA34C1B
BE020924
BD68AF81
BD763B25
3DC86163
BD4CC144
3E2154CA
BDD302F7
BC6BAADE
3E1521DE
3E0BA9D2
3DB8C437
3D571E2A
BC3CA106
BE0C5D64
BD84C37E
BD623F25
3DBF5A53
BE1AD85E
BCA1CCD9
3DB10774
3E121FB0
3CBCAD9B
BE1A697B
BDE935B9
3E3FFC11
3E573D19
BE1AD46F
BCEE6107
BD8920C0
3D911516
BDE711D8
BDC66905
BDF7036D
3C96EBD5
BC6C84F9
BB1F72F7
BDAC111B
3A96FEB5
BCE58601
3E0EAC00
BC75D356
BCDDE9C0
BDD1AD21
3DA904F7
3D529025
3D905D96
3E3B4D05
3BC74320
3E90A138
3C58CF3A
BDAEDB2F
BE2E9E5E
BE9E0FE4
BC9832FD
BE0B7BAF
3E03D5BB
3C461954
BE260179
3EA36ED6
BC67296F
BD6AB042
3C101084
3DF50A89
BCE5E679
BEAE425B
3E703A75
3E0BAA58
3E857D5B
BE406749
3DD9756D
3E3DCC64
BE822E5E
BE24A383
BDC7C632
BDC157EF
BD000325
BE2CBB3D
3E8C2203
3E668CAC
BE1229E9
BE021533
BDB810E9
BE395571
BD9B0468
BD997DD0
3D241701
BD80064B
3E13FF69
BD2B68CF
BD52CE03
BE3DE93A
3CC2E558
BCAA0A96
BE0FA9C1
BD0D3F18
BE66F588
3D19695E
BCFDDEBE
3EADB63D
3DF70B4A
3E7A3401
3E81D1B3
BE0627BF
BD934A45
BE9733A9
BE830F6B
3DD07BFE
3E30FE48
3DA4F6E0
3E2EA7CE
BE007315
3C1FFD61
BDE6D0D5
BE2D8BE7
BE153F3A
BE30578E
BDC37CDD
BD631A4C
BE90813D
BE19B23E
BDBF316E
3E3CF4A5
3D0942D5
3DA60BB3
BEBA5D29
BD2A5A47
3E25E6BC
BDFEA811
BE83F0FE
BE4E33F0
BE542BFA
3DEA2984
BD89CCB8
BC73E469
BD5BBADC
BD7E846A
BD27EE91
BB8711D8
3DE27F1B
BE3F8E3B
3D7DFF3F
BE8CF3FE
3CD1BF7B
3E52031D
BE932B77
BD636E2F
BDE9BF9C
BCF67F4E
3CBBEEC4
BD934938
3E11E18F
3D4E9920
3E1EA52F
BE0CAC08
BE536DA8
BCFF0CBB
3E80F5C3
3D143AEB
3E1A5DAF
3E0478C8
BDB04578
3DB6BE38
BDAF4385
BE73A8E7
BDC8E608
3D3F2F55
3DB44780
3DA37718
3AC88A48
3D9D1915
3DEF4ADC
3D5E98DD
3E430A4E
BD4094E6
BE1FA69C
BE270868
3E27481B
3CAF8162
BD9FFC54
BD9F6DB9
3DC2D517
BD491299
BD10FA59
BD9038E3
3DD91E64
3D13404F
BE42684D
BCA36E2F
BD3A56DE
3D6BD4D0
BBCFFA7F
BE214E7F
3C1EDBF9
3BD117B5
BE2B2E5A
BE970A5F
3D348B22
BEB2934B
3CDF4C2B
3D3980F5
BE2854CE
3C7B267C
3D8827B7
3E95D7ED
BE757C0B
3D270197
3D2774EF
3CA94574
BE3B120A
3E61F3E9
3E325EDD
BDA326E1
BE815FCC
3E531F8A
BE239607
BDC3D923
BD9D5992
BD87B353
3E25243A
3DC44C7B
3C82A348
3C96787D
BEA5EFE9
BDEA6B94
3E0CB5FE
BD84DCA9
3C1FA97E
3D8AF1CC
3DA3382E
BDDABC0E
BE346951
3D1B6B2B
3DC029F1
3D2B0B7C
BB92CCF7
BCFD9770
3CD44FE3
BE197FE9
3D0DF8B1
3DA70542
BDA2A1B6
BDDF5F91
3DF945B7
BC55ED07
3E7151E7
BD6832BA
BE6ACC4F
3DDF7AD5
BCC2E771
BE343B2E
BE9F34D7
BCBCF4E8
3E08FA7B
BDDD449A
BE29D94D
BDAE618D
BDDD4E90
BD0BEC68
3E1B1184
BED5436C
BD4357A3
BCE1CDE6
BD907853
BD193C47
3DDF31F4
BE5323FF
3D62046C
BD6F7C24
3C39C305
3D45B292
BC4AAB8A
BD20A958
BD6745BF
3EA0D3F2
3DD3D4AE
3EB97B0F
BCE7A312
3BCD7CF6
3D884DFD
3D8AB2E1
3E0CB3E5
3E5B47C7
BC387379
3DBD5BAB
3D750D28
BD2393EE
3E2BF594
BD7891E2
BC4CE5F7
BE3CFBB9
3DCB630B
3BDFA440
BC31209F
3E91E881
3DA48063
BEB239E7
3E6738A4
3E6C404A
BE730F06
BC03B603
3E4B09EA
BE85F8B1
BE2A8DEB
BEA8FB44
BE900757
3D55E072
3EB4A1CF
3E467B5F
3D4ACD18
BB63CD9A
3E20257D
BD3D9EC7
3D8C47A1
BDB19DED
BE49185D
3D8E84AD
3CC0485A
3CC18506
BD33F530
BE73CFF6
3CEDEFC8
BCC5E0B5
BDE27525
BD8DAC26
3E098E11
BD992967
3C5338F8
3EB42D28
3E009B74
3DB20B80
BE445CBC
BE20FFDA
3D711C6D
BE342D49
BDCF544C
3D56B229
3EA2B2C0
BE958CD2
3E480171
3E30A4E3
3D607B35
3E7B8844
3D0B88CA
BC8431BE
BC8C868C
BE0E5AFF
3E0B9D80
BD98AC19
BCFD0F1F
3D52F3C3
3E155F35
3DEB8F15
BD95F56A
3DAAD3E9
BE352696
BE27BD49
BE409AAA
BE145AE6
3E2E5215
3EC9CFBC
3DE09918
3E5820E6
3E7C03BC
BE65881A
3DAC75C5
BE60724B
3E589EBA
BCD0E12F
3E6C6541
BDF229E9
BE12E233
BE11BC99
BD86E760
3E38F3ED
3E8F0BF2
BE144913
BD3C3D68
3E6E6080
BDE44AE8
BD8A265F
3D9A93AF
3E842203
BE1AA5C6
3EAE427C
3DA6A2B1
3E301366
3E206898
BE976F09
3DB816AD
BDFF8445
BE80C437
3D822B39
BE3D0679
BC20C283
3ADC981C
BC8DC550
3C0B32CF
3E584168
3D83193F
BDF348B2
3E004578
BE131833
BE6E1D65
3E03122B
3DA94BBE
3D247ED0
BE0570C5
BC1D909F
BEBAAC75
BE096A27
BDD64CF9
BDBE7104
BDF76AB6
3DFDB22D
BDD57FFA
BDF166E0
BE52D16C
BCCAF4F1
3E3288CE
3DF05C03
BE0A85CB
3E9039EF
3E6D5348
3E08F57F
3D5E0F80
3E1D5779
3E0194C0
3E0DF373
3D2E264E
3E2AB29E
3E349907
3E602E66
3E80B524
3E346AE4
3C2FA722
3C1CC31A
3D0E453D
3DCBAE04
3E80DB27
BB2D46F6
BC7355CE
3BE8533B
BD99C172
BC3951C6
3E9527C4
BDB0763A
3DC2A993
3DCE72DA
BDED0AAA
BE15AAB4
3E2D6E05
3E8B033A
3E86FB4C
3E535C5B
BC06876E
BD7607C4
BD3A3982
BD5884C7
3D347736
3EC11255
3E81B4FE
BE1666ED
BDA0C0F0
BD4BDCAD
3DC0B999
3E243C7D
3EA14057
3EA87A29
3E1DEB10
BDB49279
BD919264
3DDA9D1F
3E2D2631
BC7DD65A
3E7CB5BB
3D370479
3E4A4A8C
3E1ED5F1
3E9B6630
3DB00820
3D535EB7
3D1E2585
3D835159
BCFCF5F5
BC329A1C
BE1013EC
3DCC6690
BD6B50B1
3E1F6BA0
3D9334C6
3E23F6C2
3E2A8588
BD6B3248
3F07034B
3E3875D5
3CC10D7C
3BAE31D7
3D90DF16
3DF13BE2
3E0CD424
3E3C44BF
3ED22C23
BD4B5569
3E64C059
BE230729
3D9CB685
3D96D7E9
BE5EC28B
3DB59792
3E1BE22E
3EA182AA
3EAEA594
3E37EE4E
BE40520D
3DB6C482
3D6FD977
BD08CC57
3E17AD8E
3D30C027
BDE8B9FE
3E4F3A9B
3DABA8C6
3D0DE8F7
3E8FCF5F
3E473DE2
3E74EB57
3E7512EC
BE4F2453
3E368F4B
BE8A085B
3D81D649
BE2DAAD6
BCB46BAD
3C66644E
BC30FF11
BE5FA3BA
BD0F398F
BE908C82
BE2EE45C
3C07980F
3D31971C
BE30AFE6
BD9676EA
3D8B3CC5
3C9BCDBC
3E460DCC
BD2FE0CE
3E0D5886
BE284BE4
3DAAE7D5
3E7B1855
3EC8B7C3
BD70E2C1
BE221D97
3E9B8EB0
3F0AE286
3E1C0CE9
3DB2B90A
3F0FBFF9
3E27342F
3E0219A8
3E280FDC
BE2C41DD
BDA2E6EB
3D8D00B4
3DBB4A23
BE38BB90
3DE63E08
3E7D6F54
BD51C3AD
3E263843
BE140B35
3E5B0DD8
3D9E5C92
3E9291DA
BE5C7219
3DD0D845
BCC723AB
3D06BACF
3ED667D7
BC701323
BDA5BD94
3DC6C00E
BED2426C
3D4E453D
3D8F8F8A
3DB5FC3B
3DA95A6C
BDD7A787
BDAE1694
3E4A4A8C
BE7865D8
3D5E4713
3EDBED96
3E458080
3B0461FA
3E52938E
3DF558A7
3E0AF145
3E0464DC
3E92E01A
3E96D091
3E49CF14
BEB785B6
3EA3326A
3E612B5E
BDD5885D
3D3FF152
3E7B9496
3ED12BE5
BD695422
3E941B76
BE1D1BF8
BE798B2F
3E855E8D
BDB5CE9E
BED0DC33
BE534B94
BE83F0BB
3DBD5B25
3DF48DC1
3EFA2270
3DCC3548
3E827A20
3C526B72
3D7CF4E8
3EAE3D3E
BD8205FF
3DFA2164
3DFFBF83
3C8815E4
3E4988D3
BE72567A
3D8B4070
BD9F138C
3D218DEF
BE016A8C
3DD51373
3F001ACE
3D71DE6A
3EA9DC94
BEAEFEB5
BE0A4617
3EB99EF9
BECF1F9B
3D68826B
3E2E1C9B
3E4D0918
BCB30942
3D6D84D3
3DA01EEF
3CCD8DBD
3E1AFBC2
3EB97721
BDFBCEC8
3DB9CF9A
BE0C460F
BDD5DBBA
BDAF2C73
BDBD73C9
BE873BEB
BE5C22AB
3E89A3D3
BEFEFFC1
3E1480E9
BE01908E
BEFEA8FC
3CF3C70D
3E7C0BDD
BD0F5B1D
BE05B24F
BDBE2DE8
BE72990F
3D45C033
BDDB4D49
BB8754F3
3E3CB03A
3EA46D1E
BA60A84C
BE43AEEF
3E1832FD
3E1DDCE8
BCE73605
BDF8C6D6
3DA84A51
3CBDD54E
BD5D0B74
BE29F948
3D8D82BA
3D8091C1
BDBA14CF
3EC4FB98
BDACFE9B
3D54141F
3E5C636B
BE2FC2EC
BE8C2D06
BDB49BE9
BEA36439
3D4FEBD1
3E53FE5D
BC7F4BA5
3E39D0EA
3E14E619
3E1D1AA8
BE1A4B99
3EB02A13
3E06A551
3CA66FD6
3EA7F9D7
3DD4F93C
3EB0346E
3CC7E8CD
3E23EF28
3E70CBF3
3D719829
3D8AEB81
BE15D2D0
3C5A37EF
3D9CE7CD
3EA77920
3D5A5764
3E5E529C
3E0881A1
BE3748A1
39B02928
BD4DE8F7
BC832FCB
BD599674
BD4115DF
3E4FE825
3AE64B23
BAB8CFC0
BDBD909F
3DA109D0
3E46E7E6
3D98E9F7
3E4AF70A
BC62FBE3
3D9DF655
BE085554
3D87A28C
BDE14941
3E7D7BEA
3E78B2EA
3E5C4589
3E80D845
BDFC970F
BDCD79D1
3E99C5E7
3E3FBFC6
3E0965F5
3E73DAB6
3E42DE01
3D30FBEC
3EA4ACF3
BBDCC20D
3DF8EE28
BD4F0B6B
3E65F99C
3CD36B4C
3DC93B7E
BD91C6D2
3CFC45CC
3EB47B46
3EE6D118
3DF44242
3E7B6FE3
3BAD2568
3DBC94F7
BCD4EF46
3D296C40
3C5D15F0
BE7E3088
3DB6C482
BE2E94EE
3D2A704C
3D5AF4AE
3DEE9DD8
3DC4C272
3D12EF91
BD403793
3E83AE47
BDB84C27
3E597072
BD0DCA8E
3E810A78
BDF996FB
3E12DE87
3EB3B2DD
BE40EBEE
BE8504C5
3DB7AEDE
BE796894
3D673605
3E84180D
3E6AE03B
BE1647FE
BD4050BE
3E3B495A
3E0E2BD0
3E35F6BA
3E62A1B6
3EE98B50
BDEAB68D
3DC1B435
3E178317
BE14FBDB
BC7C8B00
3E2854CE
BD488C61
BE48800F
3D9806F2
BD5E3B8A
3D8AEB81
BD96683C
BE9343FA
3DE476F3
3E0120E2
BDA98BB5
3DD15486
BE5AF145
3E6B7889
3C8012E0
3E189763
BC917508
BE062995
3E76A551
BB64217D
3ACD8559
3D8404A7
BE89FF2E
3E8F212D
BDFDC9C5
3E4BE059
BE770F39
3E0FFDE7
BE81C3F0
3E370825
3DAEDC3C
3C17310A
BCFC8F32
BE9A031D
3D58E10D
BCB97354
BE675C07
BD577964
3D30E1B5
3E2F865D
BE860136
3DFD5454
3CC11E43
BD325C3E
3E2F4B1F
3D16B010
BEAA6CA0
BE35AFB0
3CFC3D68
BC894813
BECD08F6
3D0F8940
3D757929
3DBF6988
3D640FAA
BE42AE8E
3E0670A0
BC35B2D5
BD0D1B71
BC5D6E05
BEB48D7E
BC911490
3E29567E
3E4713F0
3E798916
3E4501E2
BE6F2CB6
BE59D346
BDD2C6AC
BD962E0A
3E417C1C
3EB440AF
BD2033E8
BE358D58
3B8038A0
3DC6E19C
3E8E0525
3DB7F280
BDA475E6
3D3E681B
3E74F441
3D48F755
3BD63CB8
3ED0BDCB
BD02F61F
3E0D7E89
3E8E9B7C
3E791644
3E5ABC94
BD971759
3D37414A
BD42FA51
BE551DAC
BE464D7F
BE036B09
BDBFD263
3E83B491
BE5D188F
3E00895D
3E6DE658
3CA11EC9
3E2F993D
BD8368F1
3E807B57
BE5934AD
BE7FB97C
3D63BFF9
3E291687
BE0537A0
BC27C5AC
BE806727
BDEC5437
3D88D7E0
BE420A31
3CCEDB2F
3BEC41DD
BE1FF79D
BE9E0C9E
3E69BA1B
BE81615F
BE309EDC
3E4055FC
3E9B636F
3D3B04EE
3EA75968
3D01C609
BEAB1423
BCB6A833
3E336F3B
BD9B1F25
BE3D2C38
3D037C57
BE96F86A
BE1E7F6F
BEA17A25
BE5F7C67
BDB698FE
3DB1D3ED
3C7CCE1C
3DE389F8
BE262952
3E8B0D74
3C512CAE
3D836EB5
BCF8A6DB
BDF2B55F
3D9F0026
BB94F69D
3E9EFC16
BDDF5621
BEA39219
3E876923
BDB0D738
3DDB70EF
BD70739B
3DF3AFFB
BE7E8145
3D9295EA
3E2AB4B7
3D5F4F51
3E39FD37
BEA4E9A3
3E1CC964
BDEB13E0
BE3EA034
3E4D2568
3E3B0575
3EAC0AD0
BE96366D
3DE00C0F
3D37FBF0
3E455715
BC2875D5
3E9EBCE8
BE93530D
3DA6AB9B
BE669121
3DD41850
BE05E679
BE2E379B
3DB54DA5
3E38B503
3E7282C7
BE73FC87
BCEBA6AD
BDB85836
BE957E89
BDBEC4E7
BC714DB6
3C042742
3EBDDD6E
3E74816F
3E48F041
3E492C49
BC9FA333
BB1B62C7
BC1F2FDC
BD81E9AF
3E472C0E
3EB0D4FE
BCE4430B
BE8569D3
BE303687
3DF932D7
3EA8791C
3E815EE1
3D179E17
3C139EAE
3D805A2D
BD81E4F7
BD154328
3E01D25B
3C89E55C
BDA16E7A
3D884945
3E8423D9
3E696031
BE3C3D25
BE79D3CC
BE35C076
BE49029B
BDF0203E
BD1D91AC
BE53397E
BD94D163
BE314EC2
3D5E5D18
3E0FBF83
BD77BD06
3E3825E1
3E01B824
BD929A1C
3DDF6988
3D6E4E27
BDE7BC3C
3D8C8C50
3BD5CFAB
BE8B497B
3CB367A1
BCB6BB13
BDC6E7E6
BDAA3487
3E46DEFC
BCE1EB42
BD8E9AB3
BEC41590
3E7098D4
BE722A6F
BE9574D6
BB846A5D
3EAA120E
BDF5E311
3D466C2B
BDE8765C
3D85015C
BC93DFB1
BCF23AB0
3DC51C9F
3E20B029
3D336BD3
3E30A17B
BCF442C8
3D23A6CE
BDBE13B2
3DB24B77
BEB0CF9E
BE0EC4A4
3DCC0D6F
3D17F951
BE1A5EFF
3D0B955F
3D46583F
BE942374
BDB03EA7
3E1D9FD3
3DA40315
3D87EB6C
3E2182ED
BE89F080
BCE16B55
BD55A6C6
BE307810
BE689DAE
3D812C6B
BDC4588A
3D5754B0
3D08EDE5
3E04E981
BE165A14
3DE0C5A8
3D97D391
BEE39BCC
3E0156E2
3E27079E
3D1B456B
BC3F26F2
BDDB71FC
3B013CAC
BED61028
BE852E94
BB9E4D5E
BDA4851B
BE595E5B
BDDBD406
3E01A3B1
BE05D5B2
3DAE34FC
BE866299
3DAE86C6
BDF14446
3E337A81
BE7BF120
BD56616B
BC011F4F
3E1389B5
3DA05F6C
3E7483CB
3D423FAB
3C0E8640
3E31D756
3D965669
3DEE2329
3DA52503
BD1E3DA3
3C2493C9
BCC40AF2
39473ABD
BDED8905
3E4C1334
3E8913A5
BE3F969E
BDC7E73A
BE7A426C
3D83864D
3E36FF7E
3E2EEE95
3CB6FE2E
3E1DAD32
BD63315D
3D85F959
BDC8ABD6
3CCC1CA4
3E0A3F03
3DCAEEA6
3E836EF8
BDA8E0CA
3CA2EE42
3E22FBE3
3E22A77A
BBE9899C
3DB90646
BDD44567
BE592EA5
BD12A305
BE85590C
BDCA4335
3E0FD1DD
BE67ED85
BE90F10B
BEB1DB44
BBEC8D5C
BE830C46
3E66D2AA
3DB43D8A
BE8E171A
3D684AD8
3D4197E5
BD38316A
BBF483CB
BDBFE32A
BE73EC89
BCDD2D02
BD96787D
BD152D23
3DF287C2
BEC65237
3E9EF8CF
3A9D0636
BD9AA822
3E2662FE
BE0EF4E0
BD82ADC5
BDE605EE
BB8FE261
BE446CB9
BE122AF5
3E25FD48
BD0B85A5
BDC7F3CF
3D89F16B
BD972581
BDD1DCD7
BDC1A47B
3C43E74B
3E0CB296
3D8641B3
BDCA7158
3BFAD6CB
3DBE69AD
BCFC45CC
BB93AF75
BE6D1288
BE263FDD
BD9B64E0
3D6BF22C
BE0C9EED
BE235372
BC092AB7
BD90EA18
BCAA821F
BD651D26
BCC2070C
BD3A3337
BE3DAA93
3D564303
BDA8BFC2
3DD8D152
3D974CD3
3E23482C
BE008B76
BE2B3D08
BC8259E2
3D7C7821
3DF1B2E6
3D7035BD
BE7A17F4
BE4C829D
BE754003
3E2BFB9C
BD940BBB
BE3CD185
BD39C51E
BE007A29
3BEB5F5F
3CF9B131
BE5D8C6D
BDDE2C56
BE288C61
3E407AF2
BD534480
3DB40A28
BDDC408E
BE2BC16A
BE5C7C95
3BDB9410
BDEF6838
BD7FF584
3CA1E81D
BB66F2E9
BDB5BCCB
BD67BC3C
3DAA5721
3E0F83BE
BE8531BA
3E06D118
3E7FB613
3DADAB9F
BE49ED39
BE4980F5
3CAD55A4
BE5D20B0
3D60125A
BE2A3E3A
BD6704BC
3E094D51
BD9443D4
3CA862F6
BE1FBE34
3DC2ACB8
BD38E9F7
BDBFA227
3E155001
3C8029F1
BEB3D790
BE12DD37
3E322EA1
BDB26D8B
BE563A5C
BE1BB0A3
BDAB5350
BDD0F734
BE0DC337
BE8F9D91
BC99695E
3E15D56F
BE14D1A6
BC6453D2
3DF2A62B
BD52A737
BCA556D2
BD25E56D
BDC37CDD
3E4398A6
BDBF02C5
3DB72C52
3CCBCADA
BBAC6477
BCBD9CAE
BEAD50A9
BCD4152B
BD325E57
3D1FF0CC
BD5CDB38
3D325F63
BD54EC20
BC5A4CE8
3DB5CBFF
BEA7312B
BCF3F962
BE1DC8FC
BD367903
BD84180D
BE412E84
BEB01D5C
BD87924B
3DA199FE
BDF3AEEF
BE1C4220
BC7B480A
3D2E04C0
BE171BCE
BE33BABA
3E4DF8B1
BD6A7158
3D6DD378
3CA189BE
BE0B9842
3C6A4229
3E0C3654
3CB59147
BC38023A
3E114163
3CC0B567
BE904A51
3E2739F3
BCAF4491
BC746ED2
3D611DBD
BD6DDCE8
BE570197
3E4AA088
3E30F495
BBBBD380
3D14C986
BDD16B98
BC9285A9
BE023D4F
BD79BED3
BDE982CB
BD6D6239
3D6C0725
3E4DB984
BDB0489D
3DB806F2
3E55C422
BE2A600B
3DE39368
3D64AADA
3D7A0D78
3D3F77AF
BE3BFC65
3DF4538F
BDFA61E1
3E3B0D0F
BE6F223A
3C483EC9
BE272F34
3E47AC82
3D8E5CD5
BE5B4B73
BE8B2C41
BC7BF834
BE2A875D
BE8992C9
3D9E3194
3EAF9874
3E86A7F0
BD5566CF
BDEA0E41
BD4A82A5
BD8C4502
3E5856E7
3DD8FF76
3DA00A7C
BDAB8B69
3DB37C9A
39FA15DB
BE709B30
3E245F18
3D8B0293
3CCAEC8D
3E0F811F
3DA5A5FC
3D95A7D2
BDF5D356
3E8E72B9
3DE2B841
BE214941
3DE28A1E
3D93C46E
3E93AE8A
3E0A0FD4
BD51A112
3E900B67
BE8255D2
BD87967D
BD6FB19E
3E292A30
3DEA7A42
3DC258D6
3E281840
3E037B07
3E3321E6
3DA30660
3D399B2C
BD8BA062
3C0AD688
3C4EC850
3D8167A9
3CD8ADAC
3DBA1E3F
3DDC78A7
BD1C2092
BE618C19
BE5523F6
3EA8F1B2
3E6A7EB7
BE964E8B
BE162F16
3DF48B22
3DFB3D08
BDBBDBE4
BC7CFC40
3E76687F
3E3384FD
3DC5E460
