3DDACEEE
3E166D37
3DB123C4
BE2320DA
3D080629
3EB1871E
3C86DB51
3E86D246
BCE6516E
3D8F8056
3E4E336A
3EEA7525
3D4219EB
3EA71D60
3D0A558F
3E2FC697
3DC064AA
3E8995CD
3E0659D1
BCFA1E3F
3DA809D5
3E065519
3D5ABF34
3EB1AD43
3EABEAB3
3D9A0D78
3D4AE643
3E5DD26B
BE4514C2
3E3B3B32
BDED5E07
3F016712
