3D765669
BD81F6CB
BEB0A00A
BE703600
BEA9B930
3E94C815
BE21B2E6
3E9B2D6F
BD680496
BEADAAD6
3D97ACC5
3E657D5B
BE63A5C2
3D0A7829
BD354D1F
BE77E9D9
BE3CE4EB
BEAECD6C
3E3B7E91
BEED141A
BE9B634E
BD9B61BB
3E6518B1
3E53E4AC
3EADF15A
BEAE3F36
BD8DA123
3D994291
BEDA107B
3E6F7447
BEC9140A
3EE23C64
3E63B470
3BD8E432
3E2B28D8
BE38FCD6
3E37B1C0
BEBF3A79
3E98B88D
BE4AA8EB
3DE254A4
3DC1C044
3ECBD641
BE783EC9
3E2D16B9
BE0EF241
3E78D75A
3EA86445
BDF50093
3D0BE2F8
3D8093D9
3EA76A72
BDEEDE55
3E85425F
3D03AC93
3E0DC0DB
BD2FA722
3CBC621B
3EBC02F3
3AC7192F
3E95106F
3EA85532
3E36DD6A
BD8B1AB1
3E45EBFB
BE20D8CB
BDFB8562
BD6C9F30
3CACC2D7
BE828049
3E38051D
BE512AD8
BDC59D99
BD05B8DC
3EA684F1
BEDDC444
3E9BD35F
BF0341AF
3E0E43EE
BDFFB507
BE326202
3DBEBE16
3EACB231
3DD337EB
BEB7F024
3DE6772D
3E084274
3DE07810
BEC09E56
3DCDD2F2
3DBAA8A8
BE6BA387
3E32D6ED
3EA18138
3E270260
BE9DEDF2
BEAEE957
BC387379
3E250DF1
3ECF253E
BD99FB1E
3E465CB3
BD51F4F5
BDFCBE62
BE01B64E
3E486F48
BDFF50E3
3E8135DB
BDCCA149
BDBDE508
BE4370CE
BEA3341E
3E6B0A2D
3D010C6F
BE635F81
BD0532A5
BDF91AB9
3F29E1D2
BE1A7504
3E15ED07
3AE453D2
3DF64628
BE33E4AC
BED05016
3DF1F14A
BE4B53D6
BEA3E447
3EB03AB8
BD3762D8
BD49C90C
3DC34E33
3D7763E5
BD210279
3E8C4114
BEA4B9AA
3E9A50F8
BE173322
3E39A7C1
BDBA8933
3E23C643
3EA3DF4C
3E523465
BE65AE1D
3CA1F299
3B89DAE0
3DBA2AD4
3D516DB1
BE56BBDC
3EA260F6
3D970E6F
3CBD8384
3C7DC593
3E343244
BDEC23FB
BDAAE211
BEB5477C
BEC87592
BE6B7DC8
BDD3293D
BE47A7CA
3E08298D
BE5E7211
BE4504C5
BD033722
BD0667F9
BE96B69E
BE5B1D50
3D424F66
BE638434
BE8D4D1F
BDA8B8F1
3EECCF07
BE076E1E
3EA94DF9
BEB0F430
3F0EE8E2
BC819B0B
BE52AED1
3DEF8727
BE20AA65
BE197C81
BE5827B7
3D807A29
BC1B62C7
3ECF7F8D
BE3C3BD6
3C33B320
3E328C7A
BE71B3F2
BD95DC40
BDC92B3D
3ECD8C6D
3D228998
3BFD9FD3
3E8CE704
3E2B9E49
3E5B5DCC
3D136E72
3E01565C
BE49FE00
3D77824D
3EBCB5FE
BD903105
3D297397
BC0B502B
BE248627
BD29F8C2
3DDB5E96
3E55D4E9
BD32DD37
BD35BF6A
BDA9E6EF
3D80BDCB
3ED093D9
BDECA57A
3E98E582
BCF7164C
3EBF5E63
3E076EE7
BDD88659
BE5FBBD8
BE56F21F
BDCD91EF
BDA2131B
BE15CC42
BE32074F
BDDCB35F
3DEEA077
BD8AF683
3E504FB1
BE40EE07
3EBC9F51
BDF74DE0
3D9C7A3A
BDB68C69
3DEAA7DF
BECC59FB
3D66362A
3C5E58E6
3DBE529C
3DAB8AE3
BD9E2153
BCD8298D
BEA0203E
3E0BAF96
3E98FECE
BDCA8C9C
3E4C03BC
BE5D8DBD
3E8CFA27
3DB1FD59
3CDEB0FB
BE810386
3D8AAA7E
BEF302D6
3E123E18
3E17A249
BEBC317B
3DFD6A59
3D0229A6
3DD87379
BE44F484
3A93FAF4
BD65C4EB
BDBE76C9
3D5CBFF4
3EB62691
BE7AC083
3DE0C62E
BE9495C0
3E85B1EA
3E97837B
BCAB90A8
BEABACD6
3D930B5B
3E2317F0
BE606B38
BD9C7608
3EA8E38A
BC8D1740
BE70C8CD
3C80DE4C
3E82708F
BD873797
3DA80C74
3ED29718
BDB2BD3C
BE5C1DB0
BE30E2C1
BDEA515D
BDD2B6F2
3D9DACEF
3E95CB79
BC9157AC
3E3074A7
3E197AAB
3E4E6C09
3E942EBA
BDD4A127
BB385A4F
BE55E5B0
BE93F22C
BDB92210
3E0B03E2
3E3A6330
BEA70DA6
3E1FC47E
BE95BB9D
BE163F9A
3EA67F2C
BEEF4E23
BEAC3ED9
BE4CE24C
3E91E12A
3D5AE1CE
3E33CA75
3D4213A1
BDF9D1B3
3CE6D58D
BE6DBC66
3D56DE33
BE665626
3D3E4ABE
3D99F55A
BDC8900C
BB1795B3
3E83504C
3E81181A
3E1FEBD1
3C675361
3ED1C94F
3DC08D09
BE339192
BE3D6D3B
3D9925BB
BE11D713
BE656042
BE0FDBD3
3E4ACEAB
BE822C45
BEA991DE
3C0958DA
3E6E6E65
BE3D3BB0
BE56BACF
BE265ECC
3E63FCCA
3E473FB8
BDDBD6A6
3EB91F4F
BDCB380D
BD878C00
3D226C3C
BE0B18DB
3DF6F21F
3CEE1DEB
BE039FBA
3D5E19FC
BE075D14
BE6006D1
BE8E07E6
3D6D4F59
3D145E92
BDFFB507
3EB34891
BE17D45A
BD8602C9
BEC577D9
3D0CDD94
3F0ACECD
BDF7EF5B
3DBA9A80
BBBA6ACA
3DF734B5
3E50F7FD
3F04AE97
3D265CF6
3CB0D0EE
BD8E2974
BE9E961C
BDB426FE
BEB0D8A9
3E92886A
BDB2D2BB
BC36805A
3DCAF5FD
3C967019
3DA848BF
BDDFE436
3DC77F6B
BE6E4DA1
3E8D7A78
BD8ED45F
3E288616
BD2D2BB2
3ED6249A
BD9FBDF1
3E8903EA
3D0ABA38
3D1C5D64
3E46CEFF
BD2E6320
3C67429A
BEBAD235
3DCCCE5F
3D716C1E
3DF5A31A
3DBBBCF5
3D8D8905
3E788B11
BE84779A
3E0B5200
3C4F7447
BE7CF851
BEE74539
3EB00991
BD4DF15A
3E57BA67
3EAB91F7
3D9D08D5
BE83673C
3E9384DC
BA931013
3E8457E2
3E9629B7
3E22D2FE
BD8FCCE2
3EFA2E7F
3E19ACBD
3E207BFE
BC81669D
BCF28C7A
3E4C768E
3E6A686E
3D425397
BE1739F3
3D977D95
3E504B7F
BDD5BEE4
3E750A46
3E8CB3E5
3EA83750
BEA72991
BE1FD75E
3D9BF834
BD67BD49
3BD06FEF
3E2F27FE
BDC08E15
BC3ACB43
3DF64A5A
BC97F413
3C086595
BE1CE13F
3E36D7A5
BE443569
3ECBCF2D
3E8F04FF
BE175BC4
3C18C3B1
3DD62F16
BD5FB2EE
3E48C79F
3E301ABD
3EBC3A86
3E55D24A
3E4C4F3C
3D5756C9
B94B6C7A
3EC5A48B
3D8A3D71
3E99E01E
3D5FE436
3E364346
BDC1F18D
BEA5C550
3E451655
3E093CCD
3E976AF9
3D956755
BEB038C1
BD466E44
3E882364
3E70D7BF
BC898916
3E6DE269
3D785B5B
3DD5FBB5
BDE2F380
3E504C06
3CD6C93A
3CE40C84
BD89D495
BDD72607
BE3B4DCF
BD18F3ED
3E7ECC3E
3E54D65E
3D506BBE
3C82C908
BE1978D5
3E48B04B
BEBA8E50
BDE362A6
BDA3B81B
BD4A99B7
BDE6002A
3E8127D4
3D3E6D59
BCB57C4E
BEAAFC05
3DE39714
3E2448CF
BEAEF2E9
BEB137D2
BE84CD96
BE974F2F
3E27CE53
BDA67E84
BD469942
BE11DEF0
BEB828E5
3EC31E19
BD2CE896
BCCDBDF9
BD3F8983
BEA17E78
BE343E53
BF163B36
BE1077CD
3ECC37C5
3E41CC96
BE97A4A5
BE9F0069
3E570DA6
3E230E80
BD38444A
BEE04DFD
3D077DD8
3E9AE59B
BD2C7000
3EE52D23
3E3A9C13
3DB285A9
BE8EEBD5
3E8DC63B
3DEE685E
BDDB0EE5
BE0F9E38
BD02CB21
BE437A81
BD9274E2
3D817B96
3DC9A0AE
BE8D93C4
3E0A222D
3E8646AE
3DBE481F
BDBBFA4C
3E096180
3DF7B17D
3C4E28ED
BEDF2B67
BD4DF9BE
3EC2C4D6
3CEFC9BC
BE33D20F
BD837048
BE19BC34
B966AFCD
BDA871A4
BE84C7B0
BE158CD2
BE98A548
3E5C2374
BE591EA8
BEBA9585
BDB8A655
3EC3C89F
BE09C5E7
BE04BCAE
3E8A2EA1
3DCF53C5
BE3118C2
3E1A83B2
3E578F26
BDFBE4CD
BE2E61D0
3E224BBA
3E07C17B
BDC0663C
BE20BDCB
3DD34480
BE347629
BDE50D6B
BE178141
3E2577D9
3CB430F5
BE5D95DD
BE9916CA
3C4BEE80
BD9077CD
3DEE99A6
BE39973E
BDEA11ED
BD976FF4
BE009F1F
BE2F7165
BE8C169C
BDDA83F5
3D84DE3C
3D77EF5B
3E681A9C
BC9D3CBC
3E9E6EEB
BE12845A
3C84B5DD
3EADD8F9
BE4187A5
BE39F55A
BDA85A92
BE86D5D0
3E65B0FF
3C99029B
3EBF8B9C
BEAB40B3
BE21C821
3DC4F5D3
BED6162F
3E4FDF3B
BE9EDB2F
3BAA4B99
BE126FA4
BDEF28C8
3E82AFDE
3E4785B6
3E9D438D
3E527781
BE617764
BE30DAE4
3E85985B
BE589481
BEDCE011
BEF99631
BE52131B
BDDB7D85
BE63DC8C
BDD0CF5B
BE598740
BE91BDE8
3E99BD40
BDDB5FA2
BDAABBCB
3BA72EAE
BE444178
BEEC9A99
BF2DCFBC
3D7D5886
3EAD9E1F
3E694185
BE6402D1
BEDDDE9C
3E983AB8
3EE8FE48
BE6A5EBB
BE4FF92F
BE3CE747
3DE3C105
BD63AB00
3E16FB4C
3E31DD5D
BD612F90
3CF4CF4A
BD63E6C5
3D2FD545
3E202257
BE8EB69E
3E0DE764
BE331EC1
3DC2AD3F
3C230DB7
BD092CCF
3E286877
3ECF4E01
3BD434A0
3EF4F13D
BD9BF0DC
BDB30596
BCB1C21A
3BE63A5C
BDAA1273
BDF45847
BE3224AB
BE19E6AC
3E269CAA
3DCD8EC9
3ED4126A
BE741E15
BE2621B8
BD91D713
BE5DB270
3DC57AFF
BDCF5558
3E936B09
3D67CAEA
3E243287
3E8EFE93
BE596F65
BEA1973E
3E223FAB
BE7D2418
3E6BA3CA
BE9D6020
BE34EA8E
BD389D6B
3E93A53C
3E8FBD27
3E60CA60
BE8F9896
BD44588A
3D8BD3C3
3E2436B9
3DB2E2FC
BE28D089
3E7A6480
BD0489D2
BB692D56
BCD28F19
3EAEB639
3DFED634
BEBD1EB8
BE60FF97
BD3F1844
BE7379B7
BD89E775
3E7EE73E
BC34EDB3
3E70E886
3EBF6295
3EAED82C
3E805DFB
3EE77F28
BE329457
3ED9ED9E
3E81E57E
3EE39DC3
BE0E0503
3EE3DAF9
3E97CE31
3ED8535D
BD8B8738
BE4FFCDB
3E5A0770
3E2A1AD6
BCE6A551
3E181F97
3DEED02D
3E2AD29A
BEA315F9
3EBF5C4B
3EA5CE18
3EAEFE50
3DBB0681
BDE00325
BE6574B4
BBA8DA7F
BDCBC1F0
3ECFE1B9
3CDFA227
3E811BE7
3E3F0175
BCAD8E43
3DFC065B
3D6E3E6C
BDB15593
3F024EF0
3CFBFA4C
BDCE0C17
3DBC99AF
3E8B2E9D
BDDD73C9
3E0384BA
BD9A5A04
3DB86983
3C9B7176
3E3A148C
3D82C01E
BEA219A8
3DCDA22F
3E6835DF
3B77A919
3EEC5543
3E52AA5C
3E42873C
BE50474E
3DF0E454
BD479B35
BE28C975
BDE03FF7
3E9AB325
BE99FDDF
3E136C16
3D4D4CBA
3E15D0FA
BE9FCE53
3CD4024B
BCD23B36
3E0AAE29
BD284274
BE125E14
BDAB851F
BD9E8577
3E23A0C7
3DC067CF
BD845B29
BDF51EFB
3E05DD09
3C1A9DA6
BE1E0371
BE8A584F
3E5DBAD4
BD4C5C9A
BEE66080
BE0E5860
3D15BCCB
3E17E73A
BBDA09CC
BE22FF4C
BD189375
BE24CA92
BEA15486
BDBFF2E5
3EA8C826
BE5D6CF8
BE71144D
BE3CEA6C
BE68194C
BDFCE747
BE7A0AD9
BE083622
BE6C38B0
BEF49F95
3E636588
BC99F3C7
3DE84B5E
B93FE3B0
BEECC72A
BE5312F5
BE995704
BD3BD274
3F12AB58
3E45A9A8
BEA09332
BEA4CF8D
3E9FF844
3E67E9D9
3C9EADD6
BEBF060C
BE80891A
BC9E9292
3DFE8BC1
3E7E557E
3D4F25A2
BE30B45B
BE9886E0
3E319B91
3DCC6C55
3E871D1D
3E046BAD
BE03D4AE
BE06130A
BE3F8E3B
3DBC6089
3E40C1FD
3D3A6CE3
3D07991C
BDF3E682
BD756324
3DF0BC7B
3E487D2C
3E12CDC0
3D77A2CF
3E0C69F9
3DDE8922
3C3430F5
3E82A9B5
BE430DFA
BE8EB0FB
BDD0DCFD
3C9172EF
BE6163FE
BE48CAC5
BDF77186
BE04B2FB
BE44A490
BE287011
BE830293
BC6F62FA
BBF88B97
3C415098
3D4A6DAD
3D87C632
BEB86B59
3E2239A4
BE804253
3C13C03C
BE83F1A6
BDD71434
3D380453
3E60B806
BE6BF2F5
3D907FAA
3E1E31D7
3DB2AB69
BE1CF4E8
BE9F6252
3DBA53B9
BD417119
BF0CAB82
BE06223E
3E0BC7F7
3E1ABF34
3C24ACF3
BEC44E94
BE9B2EBE
BEA6464A
BEB4E65C
BCD1E322
3DA51C19
BE2043E5
3D9AD081
3E84F4A5
BDE2FE82
3E98BA41
BCA146A2
3E8D948E
BD83B70F
BE12B90A
BDF27BB3
3E26E2A8
BDC569B1
3E46C7EB
BC9059EA
3D2A3F03
3DC5CAB0
3EA2FD97
BDD358F3
3E119978
3CEC636B
3E8E5519
BDEBFA09
3EA7F62B
3EA8168B
3A1246BF
BD0299D9
BE7B8E08
BE529E4D
BE564495
BEAE4FB9
3E8F1A5D
BDE84A51
3E35FF61
3E3C0443
BE033765
BE78F8E8
3E3F583A
BCF99A20
BD462C34
3CC638C9
3DC0B806
BEB56FDB
3DD50B95
3E56A876
3CE7924B
BC541B76
3E407896
3D521BC1
3E38E326
BD8D3A60
BE0B6BB1
3EE081A1
BE78E92D
BEF79EBF
BD9CA969
3D7BACB4
BE48D8ED
BD2D0918
3CF7C45D
BDC7E521
BE472B02
BEB043C4
BD897FA6
3DF0678C
BE7F9A4A
BE808FA8
BD2F5BA3
BDC55864
BE2DFA01
BE669446
BE9EA5F8
3E3BB7FA
3D820CD0
BB798FA3
BEA99BD4
3E9E1FC1
BED0CF18
BE91932D
BDD20B80
BE6C3654
3ED810A5
3DD8AD25
3EB09481
BE0B24A7
BE3331E4
3ECD933E
3EDEE32E
BE9FE521
BE3F151E
BD098916
BE6CFC83
3E989460
3CF52546
3E899115
BE9AA38C
BE6C4BD3
BC0E6D16
3CE2E2B9
3E18D4FE
BE76E71D
3DFF3E03
BE868B1A
BB417657
3D8C57E2
BE2A12F9
BE3BC72E
BD66AB9B
3E198AEC
3E4E685E
BE3C4EB5
BCEE0F3D
3E31B824
BD444F1A
3C671045
BEA6D0F6
3EA00043
BD95FB2F
3E873259
BE12D4D4
3E056473
BDF7E4DE
BD04A2FD
3C991794
BE01FAB9
BE563CB8
BE276AF9
BE46EB0B
BD91A112
BE94A1F1
3E2BBC2C
3E6468CB
3ECA76B8
BE13647C
BD61943A
BDBBB060
3E84B6C8
3DB4BF0A
3D83AD19
BE153932
BDF9DD3C
BC470436
3E4D3177
3EBC9E23
3DF9E386
BDD37868
3E9264A1
BDC4E0DB
BDA48E8A
BBC332F0
BE2321E6
B9EAE18B
BE264884
3EA3CCD1
3EA4AA32
3ED9AFC0
BDA53B08
3B6B4635
BECBDC48
3DFA7979
BE79170D
BE152652
3D61C582
BD52AC75
BE638B8B
BEB17F20
BA880D80
3E37EAE6
3A0FEAC4
3E114D72
3E17AFEA
BE0C269A
BE8622C4
BDDDA72A
BD2E72DA
BE2BAF96
3E9830C2
BEC86120
3CDC7043
BE4020C5
BE0EA572
3E9D5B03
BE5C1334
BE7F7510
BE39F773
3EC6B830
BD6BECEE
3EC640C8
BA70A5F0
3E77B56C
BD73B42D
BE9E7579
BDE4FFC9
BCD2135E
3E95A251
3E76D7A5
3AEFFE2A
3DA4ECEA
BDAC7086
3B858794
3DA76534
3EAA2C02
BE845176
3D2F0BF2
3D835372
BD596745
BEC44285
BDB24181
3E9DFEB9
BCED06FF
BE04A0E4
3C2771C9
3E4FE500
3E4E00D2
BE5E2D1F
3A502470
BD231B58
3E392104
3CFB4E55
BDAA148C
BDD8EE28
BE444913
BECC5111
3CF83DFF
3E89F666
BE361D86
BE927222
BE461E93
BE8D7DBF
BD5BF37C
BE11D218
3E9C17A9
3C1E40C8
BDAD7F0F
3DDC53F4
3ECAAEF3
BEC83ADA
3DC5CAB0
BDF7EF5B
BEC5E1A0
BC2BD5DC
BE2A9974
BBB67C28
BF0C2A67
BDD85C68
BDC0B913
BB978D50
3D6B65AA
3E952B6F
BE66F651
3E52B453
3E232592
BE0B8455
3E14C48B
BEDB2767
3EC14C23
BE968230
BE18811B
3E9B4D8C
3F1F6A0E
3DBD55E7
BE535611
3E8FC7C5
BE111EC9
BC6E5259
3E8A0AB7
BE46173C
BE327D46
BEAD3309
BE1AEF2C
3EC19B2C
BEA8064B
3E3F3ECD
BE2B80AA
BD85B292
BEC7A95D
BE031B9B
3F31D24A
BE923444
BEDF8C65
BE2A07F6
3F1984B2
3EBB8CB9
3DE2278D
3D9070FC
BE06DBD7
BD84AF92
BD5CA07F
BE99BB28
3D4448CF
3E66876E
BE438DA4
BE186E3B
BE8B12F5
3E8E75DE
3DF90C91
3D0F2BED
3EB4FA48
3DBC52E7
BE033ACD
BDBA1123
BD07852F
3D4A1AD6
BE20A45D
3E042529
3D6D14A1
3DF7BB73
BEF44828
3D6A7AC8
3E9AC5C1
BE5B994E
BE56D00B
3D8A10E0
3EBC86F0
3E3B6DCA
3E46B617
BD8201CD
3DE42FA5
BD88E9B4
3DA8DEB1
3EA450F0
BE97B3D9
BF30FCC6
BEBB99D4
BEAEC8F7
BD74BA52
BE8814F9
3D95A294
BD93BA77
BF090753
3ECC05D5
3D07D4E1
3CFA99FA
3E60EBAB
BEC23209
BEC95CA7
BF27A94C
BE590FF9
3E3ACD9F
3E58A223
BEF334A4
BEA2D8C3
3E6B7BAF
3EC01323
BD0DE1A0
BECF2F55
3E3FBDAD
BD4AC190
3D49081C
3E5FD75E
3DB1971C
BDAC2507
BCEC2268
3C566ADB
BE5446B7
BEB1B973
BE885D31
BDAC4934
BE1130E0
3EBEDE55
BE90316A
BEA213C2
3D8E8188
3EA6D02D
BE87BC7F
3DEA5E78
BEC73BEB
BE7BF099
BEACBA30
BDF28E93
3D4AC5C1
BEBD9B3D
BD889E34
3CAF4CF5
3E267275
3E214B5A
3E0CD185
BEB73ECD
3DD652BD
3E831F25
BE311E43
BB8DD1E5
BEB1D40F
3E0E4FB9
BEDF94C8
BEC08DF3
3D78E087
3E2199FE
3E21A9FC
BCC473CD
BCFBDF09
3C2A9F7B
BD9B0468
3E3F7DB7
BE3616B5
3D8E4C0E
BEFA78AF
BD607C42
3D3F572E
3E0FDDA9
BE2E65BF
BE256580
BD15703F
BE3BCEC8
BE576AF9
3EA6AFCD
BE35B4AB
BE6317AD
BE611CF3
3DDF993D
BB21DFB9
BE868F08
3C9AF188
3DADCE3A
BD377186
BD9FE7E2
3DA4A1F1
BDD28D86
3DA0E7BC
3DDA87A0
BE5E075F
3DDAA716
BE1375C9
3C9DE050
BE7FE543
BD3AFB7F
3D1E58E6
3DECE13F
3CE451B9
3E8A680A
BEEE8B7E
BEA4013F
3DA88F86
3B8155D6
3C987A4A
3D8EB2D1
3E2BB0E6
3E483D79
BCF4CF4A
3E906F48
3E810D39
3D899418
BF01069A
BE13250B
BC89CC32
BE24B274
BC0C21E2
3E323DD5
BD8DF0D4
BEC01C93
3D51D799
3EF0FFFC
3DCF459E
3DA2E6EB
3E8DC619
BE17B2CC
3E4AB4B7
3F0627D0
3DC9E881
BE375AFB
BDD272C9
BECE3F36
3E51A9FC
3D52146A
3E6B6CBE
BE750EFE
3E2EF566
BE0A4F01
BE6D28D0
3EACE8FB
BCB61134
BE9EBB56
BE950A24
3E4149C7
3EB6B67C
3E9DFDCE
BDC748E4
3EA73D7D
BE9B3850
BF026299
3D7BC7F7
BDE37BD0
BE3E108C
3E3058DE
3C8D8666
3EB4386D
BE8EC072
3E97E47A
BE352CE0
3DC66FD6
3E26861F
3E62C98E
BD3879C4
3E49F0A2
BDF04817
BDE84513
3C39ECF6
BD96D762
BBFDB8FE
BE703819
BCB3354C
3EAD95BC
3E26EF80
3F09096C
3F1A7E63
BE4785B6
3E104B7F
3E376D98
BE4CB89D
3AE75793
BDCEC52A
3EFFDDA9
BE1B16C2
3E1C486B
3C05A922
3E415337
BE418698
3E7A072D
3D099AE9
3D24F11B
3CE1D862
BE025892
BE9CA127
BD417A89
3DA32CA5
3E7CD1C8
BDCF6AD7
3D30A5F0
BE581733
3D2F533F
BE58F798
BEA4E0B9
3DB26D8B
BE1C050C
BDAD31FD
BC3DF8F4
3DF6B6E1
3D9715C6
BE6D306A
BE12AFDE
BECF392A
BDA794EA
3D09B952
3DF0025C
3CF3FB7A
BE0D3B6D
BD894574
BD4B7E4E
3C92BC30
3DF5243A
3C1363F5
3E13E9EA
BE82599F
BC9C9928
BE41D7DC
3ED0BEB6
BDCE1B4C
3E8888D7
BDA3BA34
BE98EC10
BD9F316E
BD65CF68
BD6FD114
BF122B6B
BD8AC7DA
BD56A055
3D316D2B
BBD9F905
3EA8A82A
BE4CA85D
BE1897EA
3E4DD7ED
BE97162B
3E53B214
BE8D6D7F
3EA5373B
BE05E41D
BDE101F3
3D732BDC
3DEC4828
BE2D54DA
3DD8D717
3E32CB64
3E83D89D
3ED59125
3E9E56EF
BAE2E2B9
BDF2EBE6
BEF136C6
BE3C9108
3DCEFD44
3EA0D1D9
3F122EC3
BD433E79
3E424D4D
BE8BA7DB
BDE1C2E3
3E9BF91E
BE09ECF6
BEAA5E35
3E1E410B
3DD185CF
3E4E87D3
3D815EC0
BDCAAC11
3E2EF805
BB2E2110
BCDB8994
BE62CF53
3D97D849
3ED1B003
BD52A0EC
BDDD6F97
BCB46DC6
BD9CC964
3E865EAB
BE801217
3E07F994
BE721F6D
3D5742DD
3D946F58
3DC023A7
BE923140
BEAB910C
3E2C1377
BE10DBAD
BE65BC88
BD3CFF65
3BC8FFB9
3EEBB3C8
BE03F20A
BC916873
BD0548AA
3E23558A
3DB86A0A
BE55F890
BD7DDCA5
BE9FB69A
BEA0A8D2
3E87598A
BECCBBC3
3E98FB44
BD1D7DBF
BD762C77
BE8348D4
3EA4814D
BD06EC18
3E2B3BB8
BEAA1FB0
BDFC86CF
BEA0FC93
BE375F70
3E666F0D
3E147347
BDB2A51E
3D0064AA
3E056042
BCEA0770
BEB184C2
BEABB7B7
3E74E0DB
BD3F4ECA
BE857625
3D8E1BD2
BE0F75DA
BDBBD513
3C823209
BE2D4281
BE66FC9C
BCDC6195
BEB8AA65
BE1D4A5E
BE682E02
BBA39C52
3E8B27CC
3EB28B09
3E929A5F
BE44DE3C
3E1B8499
3DA82E02
3E96E632
3D536E72
3D0D8CB0
BE8CD706
BE042891
BE783383
BDA409E5
3DC6C2AD
3EB9E94B
BDEA37AC
3ECCDF8B
BDECB9ED
3B0F42FF
3EB41DD2
BE77DA1F
BDB2E83A
BE1CCD10
3E67735C
3E59F6A9
3F1441AB
3EA82470
3E0851A8
3A6E8D11
BEC2B820
BE810F73
3BC7D1BB
3D617093
BBAA0019
3C924AF1
BDB80885
BDF1D799
3DB568E8
BE87032A
3E1F7FD0
BEA488E8
BDA1C3F0
BE078898
BDF9053A
BE4CB253
BE132B13
3E5DF612
3E4A5871
BDCD7300
BD4C5C9A
BD81EB42
3D04523F
BDF2ABEF
BD4F1A1A
3C54A1AD
BD821C04
BE8DCF03
BEC07875
3DF16441
BD94E2B0
BDDFAB11
BE11E57E
BE351BD6
BDB253DA
3E224EDF
3C5323FF
3E123F25
BD430A0B
3E105EA2
BE37DA1F
3E859408
3EB1C609
3E4F190D
BE42F5DC
BE5DB878
BE1AE5BD
3DA67BE5
3EC255D2
3E3CC78F
BE845BAF
3E90767D
BE994424
BDC08073
3E42DD7B
BDB831F0
BE1187A5
BC9D10B2
3E873CB4
3DBC1BDA
3E72E4D2
3DABD556
3E8C0FAA
BE05D80E
BE39F384
BDA5F84D
3E52F6A5
3C2A1944
BCBB6673
BE38FDA0
3ECCDD0E
BDE2EDBB
3D9F151E
3E28051D
3E8837F8
BE50025C
BD337FBF
3E8BC87E
3DF46A1A
3E4F1B26
BDECD9E8
3E0562E1
3CC90A35
BE45F677
BE3F6DFC
3E855971
BD02BA5A
BEA3E729
BCFD694D
3D9971C1
BE24A0E4
BDC4B09F
BD8D9E84
BD29478D
BF011277
BBFEC56D
BD6745BF
3E276FB1
BE7C5719
BDFFE6D6
BE216FCA
3DCDD053
3E0A426C
BC1806F2
3E734B0E
BD1E55C1
BE33D4AE
3EC6759B
3E10064B
BEA83F70
BE1DDEBE
BDD043E5
3D9F2346
BE74BA52
BEA1D841
3DC22CCB
3DCA1AD6
BE7069E8
BE03F812
3E65AD97
BBE264E5
3DB03298
BE7C4157
3E389EBA
3E9E8A2F
3CAE2329
3DB859C9
BEA1897A
3E954BF1
3EAF7660
3D9AE148
3E5FD9BA
BBA747D8
3E6E1C9B
3DC06424
BE9842B7
3D653EB4
3E2754F3
BD22AF57
3D226F61
3DBD5A18
3C55B680
BDFCF56F
BE9A2DF9
BC80A5AD
3B84F095
3D95F2CB
3E49C561
3E5AAFBC
3E550332
3C9D2392
3E01C2A0
3EFF3F75
3E33BEEC
BDCA6656
BDB8C543
3DC31727
3DF952D2
BE37CE96
3E764021
3C2B7996
3F1E8284
BD9CC7D2
BEA552C1
BBA033E8
BDADD93C
BEB8331E
3D78E7DE
BEEB66D8
3D5AA3F0
BE2D4068
BDDD56F3
BEAAB9B2
3EE98202
BE80A00A
3CE02214
BDCBA1F5
BEC3A0E8
3F090603
3EA20D78
3E97CBB4
3DC03148
BEA708AB
3E5A5E78
3ED4C294
BEB9F8E4
BEA662FE
BE43F466
BE62977D
3F0606A7
BECB5D68
3F2D615F
BE888723
BDDE321A
3E0A2596
3DA5B079
3DB100A4
BEA3039F
3E345953
3DA3DF6E
3E4E67D7
3E1760BF
3A9FE868
BE66B3FF
BDC8198F
3DFA26A2
3E885AB4
BE5EF673
BE18C47A
BDDC7582
BDD94318
BE9F0931
BE85F00B
3E4B9AE1
3E3BFAD3
BEF510F5
3CD3E0BD
3DED8BA4
BDB363F5
BD97FBF0
BEC665E0
BD9AB7DC
3D7E3D1D
BEA03255
BE152CE0
3D81144D
BE11B3AF
BE31F751
BC81C4FC
3E05D313
BECBDA51
3E789DAE
BE898F82
3E749E02
BE74983D
BD209678
BEDAB021
BD2C1E36
BE614057
3E99C4B9
BD33D9EC
BDBE785B
3DEC4E72
3E92ED9A
3DA41BB9
BECEA359
BC81F106
3E2AEFF6
3E14DE3C
BE5D666B
BDC29069
BEB7C137
BE12B841
3E3C5EB3
BE06A6A0
3DC2E1AC
BEB51B0D
BDC22920
3D7BBF94
3DBB5F1C
3EAEFF7E
3E0A5658
BD97F280
BE99307B
3EB8B136
BE9C254A
3E7F0AA2
BE99EA57
BD033D6C
BD0FFEB0
3DCE8D97
3D425397
BC7F1950
BDCEA20A
3D8AE07E
BECA8A40
BC8055FC
BE19E9D1
3EAE4303
BCA979E1
3DCFD08D
BDE89119
3EC3F727
3E7AF7D3
3DF15A4B
BE35CFEE
3DA6088D
3D9AC040
BCFD566D
3E9A7D24
BD4F227D
BE959275
BE181883
BDFDB552
BE5F33CA
BEAFACC5
BEE0027E
3BB5D463
BDE43D47
3D65119D
BED7DDCA
3E80E53F
BECDB9C7
BDB67019
BCC3AA7A
BD0E7147
3ED62C77
BE0CDD0E
3EBA3811
3A206EA0
BE8267E8
3E09D020
3EAFFCB9
BE6B4D8C
BE2A732E
BEAF5361
BEEBB795
3E92F3C3
BECEB93D
3ED30EC3
BEC4FD4C
BEA70414
3EAA10E0
3D9AEE63
BDA2ED35
BE5010C7
3ECC610F
BE79B131
3C7DEF85
BE9529FE
3E2B599B
BECA8049
BDDA8AC6
3E0D98BF
3E11001D
BEA574B4
BE6F47B6
BD2C300A
BC1ACFFA
BD3EB28E
BD90D738
3EE959E6
3D061D86
BDF06CCA
BE453D21
3DE084A5
BE1A1017
BE83F2B2
BEA31056
BEDB2336
BE4F6230
3CBA322B
3D58F2E0
3DB3ACD6
BE70FB22
3D81083E
BDA48B65
3E4EAD0C
3DA3E8DE
3E0FE79F
3E244029
BDA0A958
BD964170
3E84523F
BE7DD9C2
BE3C3F3E
BD9973DA
BD1F6988
3D687F45
3C987A4A
BEE4CFF2
3ECEFF5C
BE16F263
BE51B435
BE53B689
3D01919B
BE84F91A
BE13265B
3C12D128
3EBB77E2
3E75EB74
BDD3C03C
3E996BDB
BE6DA4CF
BCC70EB2
3ED913C7
BE7E23F2
BE3E8CCE
3E3C4263
BBAA21A7
BE3940BC
BE156BCA
BDDC2EBA
BEE84945
3C2F965B
BDA1DC0E
BCAD4D40
3E6E5D5B
BE75CD92
BEA0EC74
BBBE058A
3CB99913
3E224AAE
3D12DBA5
3E904663
BE35B467
BE703969
3EAFD242
3E793EE6
3D5206C8
BC1C779A
BE65DE9C
BE3A469D
3AA71DE7
BE7227D0
3E990774
BD8319C6
