BF1746BB
3EE57775
BFE90D0F
3E9063BF
BF657E35
BED90881
3E8E4021
BEE54174
3E685F4A
BEB11794
BED6F45A
3D03C9EF
3D930596
BF20D6F5
3CAF405F
BF1815C2
BEC6FEF8
3E06B8FA
3E03F1C7
BEA9B4BB
BE4A9E6F
BEE97B96
BF0B2757
3E2A6DF0
BEB65FFA
BF18F6AD
BF842175
BEBC506A
BC6B8950
BE38F25A
3E759FB2
BF5B3F96
3E5544FE
3DFAA151
BE972607
BD494E5D
BE64BDFD
BF0767C3
BEE22014
BE8AFA0D
BEEA990F
3E095465
3E2C115E
BF197B53
3D5F06F7
3E8059C9
BE2EA0FD
3E0D0892
3E22ED78
BDF12A95
BDCC73AC
BEFBA8C6
BF205C14
3E5E1C9B
3DB8C543
BED25FC8
BC0409E5
BF11E6CD
BF3006AF
3E266ECA
BE7CFDD2
3E793251
C00D740C
3E9927D4
BF40B3D5
3E7D798E
3D96C615
BF022A91
BDEAE9EE
3E462F9D
3E4CE52E
BE2D76AB
3E131876
3EA9F7F9
3DF73E25
BF129F6B
BEBE4474
BEEF46AA
3DD34268
BF93BE01
3D64ACF3
BD107E9E
3E20A88F
BEFA6D6A
BE7992C9
BE84D035
BF3B12C2
BE988B33
BFA13251
3E3BF37C
BE9984A1
BEA7C06E
BF2DE1B1
BE704E1E
3F1620CD
BD4EA290
3E4BD599
BEC2D83C
3E012514
BF25E8D5
BE7F3FD9
3E4E56CD
3D8B4070
3E4047D4
BD1C6B05
BEC3E2D6
BEFF1690
BE951223
BE7ED17C
3E9D63AA
BF9CA4F4
3E75CDD5
BB823854
3E928A83
BEA376B4
3EB9A027
BE81C77A
BEA6E526
BF86CD75
BEE30E5E
3D963348
BEA27D67
3D63150E
BF09B457
BF4A5EDD
BEADFC5D
3E7CE5B4
BE27EE4E
BEBD0B95
BD2DF506
BF2B9E28
3E7E6538
BE8312F5
3ED4579F
BFC2E421
3EAAC8A3
BF51B963
BE7B24EA
BD022142
3E533E36
BF00BA0F
3E00EA9E
BF130E4E
BD9DFC1A
3E3AC53B
BEA6AF25
3DA55B03
3E69DF98
3E859685
BEE5DEBE
3E52645E
BF0B7ED4
BEC64170
BE57A701
BE752A84
3E61F46F
BE8F7681
BED0F4F9
BFB18C22
3DA4F4C7
BED460AA
3E65B0BC
BE0E9681
BE999BF6
BFC3AF32
3ECCFB98
BBA8198F
3EAE149C
BE1E7F2C
3F0E9DA6
BFB3F1F1
BD75568F
BF1DA7E3
3E54AD36
BEF6B26C
BCA597D5
BFC9A11B
3D8D959A
BF5F18CA
3D8A3593
BE1F46AA
3EE713AD
BEEF5F91
BEB17F20
BF5482AE
BD960525
3E179DD4
BF16BCF9
BE8B228E
3E89815A
3E27D955
BD3A4B55
