3DBC304D
BE612A95
BD9B5AEA
3E521AF8
3DBE718B
3DE156E2
3CAEAFAB
3D5610AE
BC962068
BCCC1CA4
3E1EF1BB
BC9D0204
3DAAE643
3E5FB3FA
3E096313
BD8639D6
3C6CF206
3E2F3494
BE0509C0
BDF06573
3DC3ED96
3E059DDC
3DEA50D7
3DA79AAE
3E8B2CE9
3E00763A
BCC1D6D0
BE31793A
3D68405B
3E27924B
3E1306A3
BDDFBC5E
BDC8C2E7
BDFB890D
BE1586CB
BD45B39E
3D29BCFD
BE0BE836
BDAB7132
3DF627BF
3DD065F9
BE8F6018
3DB2A7BD
3CB356DA
3DE154CA
3CC6BF01
3D80828C
BDD1600F
3DBA543F
3C44C9C9
BE5EE6FB
BDA91212
BE557258
3DBDE269
3DFB7AE5
3E922BE0
BD9B20B8
BD10ABB4
BD17225B
3D0F073A
BDA1858C
BC29CDC4
BB56B229
BD06B26C
