3D81E710
3DB8AB0D
BC94CCAB
BE7496AB
BC769015
BCAE2110
BE2C2F40
BDCA1405
3E8FD242
3E4D13D7
3E52439A
BCFE132B
BC3484D7
BD658C4C
BDADE2AC
3B978D50
3E165A57
BEA6A9A4
3DADB835
3E976295
3D71172F
BD92DFD7
BE61E53B
BE1183F9
BE090D9D
BE71CC10
3E699243
3E04EE39
BE31FDDF
BE5C22AB
BEA240FB
3C4F1C32
BD8F5FD4
3E4809D5
3DCAF577
BE0931CA
3E348D7E
3E8B8DC5
3E1C5EB3
3EA38306
BE173797
BC61F3A5
BDA11A11
3DE5FE97
BCA9AE4F
BEBB7308
3D634118
3CD85597
BE812104
BE943B71
BCA2AF57
BE97EEB3
3E5A88F0
BEBF505D
BDE299D9
BD76C482
3E16C482
BE71CA3A
BD072086
BD9A33BE
BD1C7150
BE91D862
3EBFE910
BDE0C9DA
BCC1FEA8
BDCD6452
3E4CE24C
3E10B49E
BD90FE8B
BE638152
3CDACCD5
BDEE6AFD
3DE78184
BE442203
BDC49342
BE4B2639
3D9EC354
3D2ED99D
3DA5A0BE
BDFF76A3
BC42DF0D
3E11E647
BC3E6A33
BE58CB8E
3D0D2A20
BC52630F
BDE79CC7
3DB4CCAB
BD953932
3E872E6A
3E20D024
BD13DB7F
3E87B0F7
3E0CD1C8
3E0627BF
BECA8AC6
BCA775FB
3E2DE69B
BD8F48C3
BDAE4A7B
BDAB7889
BE1302B4
BE5D5F14
3E481776
BE705D96
BE503BC5
3E473A79
BE3F6F8F
3AA88F00
3E54E26D
BDD2D55A
3D804296
3E2F090F
3E3D909F
BCD106EE
BDDFBE77
BCA57EAA
3DE66235
BE7DBDB6
BD3063E0
BEA3953E
BDD51373
BE7BEDFA
3BA337A8
BEB838E3
3E27507F
BDE2C5E3
BDC4E2F3
BEADFC5D
BE867558
BA566F0D
3B7C5048
3DDA4A49
BD9E4606
3DF76816
BE943FA3
BE545953
BD7354C1
BE5B5ED9
BDB079E6
BE3D551D
3D38348F
3D364389
BDC856E7
BEE2B346
BD138690
3E15C5B5
BCB58F2E
BEE0EAE2
3D1E7104
3D3C4F3C
BC771EB0
3A417657
BDB33871
BE8BE879
BE34FF86
3D653DA7
BDCCB5BB
3DF8769F
BE872B24
3D3C6973
3E3D6990
BDDF7597
BD14F26B
BEAB9C0F
3E4B8AA0
3E3C0DB2
BF0C4838
BEE1ABD2
3D93D3A2
BDD6188B
BBB15726
BEBDCD2D
BB7E1544
3DD58FB4
BBCF6BE3
3BA3F898
3E174C90
BE2763E5
3E720AFA
BDDB024F
3DF0CCBC
BE8574D6
BD5523B3
BEC6CFEA
BD88FDA0
BE78E087
3DD09B74
BD85B63D
3C47C0F4
BC56F545
BE9BF706
3E349CF5
BBAC7DA2
BE7661F2
3D47735C
BCBAA79C
3DEC4934
BC56D3B7
3D4780FE
3DBD2D88
BDE9B845
3D53A605
BDE26EDB
3E40025C
3E1487BA
BE6DB595
BE058687
BDE1882B
3DA14163
BB31CC96
3DA7D6F9
3D6C1095
3E88E608
3E1FA9C1
BE2A0232
3EBB1077
3D687B14
3CE42E12
3D6B90A8
BDAEBDD3
3EAB4E55
3E8D16FD
BE9C5650
3E096207
3E17789A
3C238327
3E6CBEE8
3E42D6ED
BDAB5AA7
3E27E23F
BDA7E6B4
3D398E97
3D175F2D
3D881D3B
3E28C60D
3BEC9E23
3DEDD830
3C6EB702
3DC5F288
3C9B6912
3C96B767
3DD24639
3DEDF506
3DE71151
3E01A198
BB775537
BABAC711
BE995593
BDF79D0A
BEB9A1DC
3D8C2E77
BE7DD0D9
3E267770
3D6615A9
BC4AAFBC
BE191255
3D85D95E
BBA4B988
3D3E60C4
BCED9BE5
BE31FAFD
3D5E3971
3DC6A2B1
3DB85DFB
3C5FA00E
BDCBE0DF
3BD96207
BE308180
3C705EA2
BB9F4906
3D289870
BE361848
3EA42DCF
3E3E5647
BD83992D
BE865A9B
3D81DB01
3E0CFE15
3E03660E
BC849ECB
3E973D9F
BEE309EA
3E2BCD36
3D99AF9F
BE66E6DA
3D788440
BEAD13D7
3DA9691A
BBF08462
3D011D36
3D30728F
BEB6ACC9
BEAA93D1
3E1F123C
BEF0029F
BDC4EC63
3DB700CE
3D919610
3E25C209
BDDF41AF
BE0121EE
3DFDC487
3D7CAB82
3E66A982
3E04F052
3DD76252
3E9EAE7D
3DAE6299
BDCA0E41
BDC09678
3E7C31DF
BEBF6FD2
BDD06E5D
3AB912DC
BD3D449A
BE1F6599
BD46FAC6
BD7DCBDE
BE7A0C6B
BCD2DA98
3E51AC9B
BE8269E0
3E2AD42C
3E2F1CFC
BE3CA70D
3EAB6E93
BD36A50D
3D4BCBE6
3D205FF2
3D69D841
3DC1919B
3E76F7A1
3E84E6C1
3EAC4DEC
BE37B3D9
3DA51548
3E85DC62
3DCA9B4A
BDB64BEC
BE7C5F7C
3DD9FBA4
3E92AEB0
3EB9C21A
3EA15E7D
3E12A3CF
BDC3AD9F
BD60A84C
3D32B778
3EE38D3F
3E07CD8A
BE1964A6
3E6ADD59
3D8C985F
3E10856E
3E41DC0E
3C8AF5FD
3DD52B0A
3DBBF594
BDFD9989
BDE77DD8
BE9BC59C
3E7A4378
3E074C90
3C8CE0B9
3E13BABA
3D409C3D
3E9B5265
BD97891E
3E610300
3DD43394
3E07E069
3E522A2C
3E5DCA4B
3C1A133C
3E6286F9
BE6C0054
3E8DC444
BBC0E7BC
3EA0520D
BEB03B3F
3E5CD7CF
3E1DD54E
BE870CFE
BE54A2FD
BC2D362F
BC042310
3B3D1245
BD40D3D0
BE07FE8F
3E050764
BE1086BE
3D7C42A6
3DF7A56E
BD7D1676
BDE77B39
BD46B591
3C3BF50E
3DAF4ADC
3E81C066
BEB1CD3E
BCC22EE4
3E076428
BD71B478
BD79C737
BD909AED
3D37CCC0
BC554DA5
BDDD7D39
BCD590C1
BD0A7D67
3D08BA84
3D90489D
3DCAED14
BDD890D6
BE84F13D
BE10F0A6
BD4202DA
BC344A1F
3E12FF4C
BE2ED84D
3E91528F
BDC220BC
BEF34635
BE28BC17
BED4A0C3
3E169121
3E52AAE3
BE8F3882
3DB12F4D
BD90795F
3DE69164
3E280453
BDE19B0B
3E477532
BD8F722E
3E1D56F3
3E195358
BE760D88
3D9AD539
BE95972D
BDD75211
BE74EF03
3E2FFA3C
BD52D773
BD5EFFA0
BD413FD1
BDA0ECFA
BE965B85
BE448CB5
BE0B9A9E
3CB4B945
3E81756D
BEA100A4
3E8ABD5E
3D5BD0E1
BEB3B3A7
BE2206C8
BE232F01
3ED44E72
BDEBDFD2
3EA0D34A
3E45204B
BB918E32
BE5291FB
3EB782D4
BB7C3F81
BE9F6AD7
BEC54D62
3E160B2D
3E793426
3E6190D1
3E411BA4
3EC9A459
BE85CC21
3D846A5D
3E78CD21
3D54BF0A
3E7CC7D2
BE16A7F0
3D01B973
3D905FAF
BE2BC83B
3E36EDEE
BE767F91
BE89C51E
3E178D50
BE989678
BE971CB9
BDF0EED0
BD0894C4
BCF10A9A
3E2C02F3
3E81E9F2
BDC59AFA
3BB8CFC0
3E7753E7
3DA28998
BD54152B
3EAEFB09
BE228134
3E410BE9
BE096638
3D31F03D
BE287486
3EAED97B
BE77DAA5
3E618506
BCBD5FDD
3E14F9C2
BE89118C
BDF4F1E5
BDAE1587
BEB3EBC0
BEDC3D25
3D2A2C23
3E1B1855
BDC304CD
3DF1F794
BE60EFDD
BE06B1A3
BE75B91F
BEB70111
3D472192
BCB810E9
3D9D0204
3B8051CA
BE39A6F8
BE9CF2F1
3DDA6DF0
BC876E1E
BE9F1993
BECBC3A4
BD83A53C
3D31F362
BD18A116
BE40218E
3EB9BE6E
BEEBABEB
BE3EC0F9
3DF5525D
3E121251
3C8C34C2
BECDFAEC
3E3F1801
BDB25CC4
3E45EFE9
BDB1B3F2
BCEFBD27
3C360AE9
3E198B2F
BEB903A7
BE81BE2B
BE0FA00E
BDD1A2A5
BEA4AF2D
BE2BA27B
3CD58644
BDEF1B26
BE05147F
BEA15D0B
3E3BF50E
BE4747D8
3D9B0814
BE59C066
3E2ECAAC
BD055433
BDA65B64
BE909332
3D94C900
BEED798E
BDEA704C
BEA94B7B
3E3D2E0E
BE4F5BA3
BE8A88CE
3E3C8605
BEA16DD2
BECADE22
3D582236
3E718CE3
3E0C3159
3E68A4C2
3E0C0EBF
BCA788DB
BE1C9082
3CDEC1C2
BE409785
3E8FD8AE
BDF940FF
BE8C7608
3CCC89B1
3D39FCB1
3D8F1FDE
BE077C03
BEDC929B
3D163561
3E9DB835
3D8EC41E
BC3A6EFC
3DBB4FE8
BC3823C8
BE9BD9A9
3DBBA451
BD1D1E54
3E1C8861
3DEB2FA9
BEAF5361
3D30995B
BE0BEA4F
BE48D60A
3E0C39BD
3D81D756
3E445C36
3DA4C0DF
3D2514C2
3DA76966
3CB12F4D
3D40E7BC
BE36CC60
BB7E36D2
BC4E3151
3D5F04DE
BD3F5D79
3E01F8E4
3D6ACFB7
BE429A1C
3C67210C
BE3AB820
3D95EF20
BDA57C91
3BE40853
BECE7408
3CD7F951
BEC2D7D8
3E402A78
BEB26F61
3DDB213E
3D881776
3DAEBC41
BE7D288D
BE766DBD
BEB14B7B
3DA9B845
BE1A4EBE
BD301217
BB6A8DA8
BD9B5E96
BE87F64D
BE3025C0
BE23CBC5
3E121922
BD6FA93B
3E22D128
3DA91538
BEB44630
BEB0650E
BC8F5A10
3D86B8B7
BE36AAD2
BE66687F
BD6362A6
BD91BE6E
3D1985AD
BD475B3E
3D35243A
BE53A9F4
BE3BF163
3E23FB7A
3E0FE08B
3CED8B1E
BE4FE543
BDA9D51B
BD51D25B
BE631594
BCA24EDF
BDC1ABD2
BE566773
3CCB8BF0
BEA04DFD
BE0F77AF
BD96FFC1
3E5E4E27
3DF3FD93
BE5B6FE3
3DB9B1B8
BE32DD37
BC3E9425
BDDA7009
3E1529FE
BE4C9C4E
BE275793
BE003F70
BD92CC71
BEAB7176
3D2E7C4A
BDAE43AA
BCD3B8E5
BE1F5F0B
3DBBA451
BE51AD21
3D82D7B6
BD08B86B
BCA62670
BDF5B9A6
BDD11D7A
BEB53CBC
3C92D341
BD04AF92
BEBC1B97
BD2555C5
BE0E69F0
BEB51351
BE18B652
BE21B930
3D1B39E2
BE11DFB9
BE523D92
3D810625
BDD1CEAF
BEFD881A
BD2709FA
3D009B30
BD6FBE34
BF1949F9
3D866BA5
BDAD90E2
BDC0B88D
BD7D9A95
BDDA7FC3
BF136CCE
BE1E5B85
BDE04641
BCA0AB71
3CC295A7
BE8F73C1
BD422899
BDED24E1
BD97507F
BE1E9425
3D502ABB
BC9D4B6A
BE5D716D
BF2F647C
BDE77E5F
3DDC22AB
BE5238DA
BCDFBF83
BE0D6A9C
BD300368
BDCCA687
BE4389F8
BE1EBD0A
3C7661F2
BE0C3266
BD45F06F
BD2088D7
3C907747
BDD34E77
BE624702
BEA49646
3E252370
BE7B395C
BCB62E90
BEC32EBE
3CBBFF8B
BCCD3BF3
BE87FA3C
3D7A99FA
BDC4CAD5
BE9C60EE
BE277293
BEADA5DB
3DD91AB9
3CBD017E
3E727A20
3D6DEFC8
3DA3D70A
3E25197A
BE410E02
BD8E49F5
3D1F6BA0
BE094856
3E29F1AE
3DC0535D
BE57735C
BD462B28
BE159296
BD2908A2
3E9F0FE0
3DAD9D77
BE97A227
BE77A67A
3D74384C
3C55171E
BDCDE6DE
BB918E32
3D677D52
BE5A1C26
BE84382A
BDDB0814
3DD70260
3D89EB20
BDD2B884
3DBA847B
BE5E8534
BDC9F517
BD309742
BDD03EA7
3D9CEF24
BD52C6AC
3D31465F
3EA3482C
BE62773E
3E896D4C
BCBD816B
BDA01E69
3C9554FC
BDCBDA94
BE0562E1
BE331487
BE3A3832
BCABE48A
BDEFF328
BE156324
BD4A569B
BE9EB075
BCCBD988
BD8BDEC6
BE2BF37C
3DDD7BA6
BD1094A3
3C0C9B84
BE5A69BE
BE65B531
3E54E22A
3D0461FA
3B21AD64
3C387379
3E4A52AC
BD6E147B
BE1379B7
BCB9628D
BEA91B82
3E8B2F45
3D8284E0
BE154E2B
BE326890
BDD9CCFB
3DFEE4E2
3DF6F32C
BE0A1A0D
3D8A808D
3E4A0E41
BCAD9CF1
3D8D0247
3D891750
3D7B3850
3DD416BE
B9D6F545
3D8752DB
BCC9E668
3C2E924F
BE24434E
3D8779A7
BC035DEE
BD59C9D6
3E5A233A
3D7EB5B3
BED910A1
BE89E7DA
3D6FE932
3CE9DF98
BC846E8F
3E86A290
BE870B6B
3ECB3F64
BE289F41
3EA75EA6
3DC358B0
3D6C6477
3E003B82
BE86C97E
3DF07B78
BEA4B89D
3DEF6AD7
3D926202
BE09A805
BEEF394B
3DA904F7
BE76BA49
BD5B36BD
BE029E4D
3E80B75F
BDF11D7A
BE338152
BE51AFC0
3ED1F299
3EAE3D1D
BDAF5665
BE3B50F4
3D346DC6
BEEAA7DF
BE5125DD
3EED4CDB
3EADE918
3EB8BC9D
BEDB45AE
BE3B8AE3
BF076651
3E20A0F5
3E69F72F
BD9ABEAD
BE86B724
3E520536
3F0548BB
BD163886
BE04024B
BE893709
BE86F73C
BEEABC0E
BE21E3EB
BE6328B7
BE9F9314
BEA922FB
BE9BB470
BDD44A1F
BDF292C5
BDFD6E8B
3EE64606
3E8AC860
BE8941A7
BD1A5DAF
3E0819D2
3E505EE5
BE07CF1C
3DA9C5E7
3E4EDE55
BE862C99
3E589EFE
BDBE7B81
BC140BBB
BE5C9214
3EC31855
BE8CC5FC
BC387379
3E93EEE5
BEABA2BE
3EC16CA4
BEB8BE0E
3E235611
BE89D4B7
BD058EEB
BE0A9153
3E17AD8E
BE9D74F7
BDB183B6
BDF7878B
3EE9C971
BE24C87A
BE841FC9
BD4ECA68
BCED45E9
3E882CB2
BBEB56FC
BE8B8D82
3D979A6B
3E6B4DCF
3E029739
3D25B63D
3C029CFE
BE4CE209
BDD3A9B0
B90C825A
3D90856E
3D45D52C
BE470BD0
BE61E322
3E46E47E
3D2E9AB3
BEF1693C
BE69F0E5
3D5E3758
3CF8E9F7
BDB3DB7F
BE0BA5A0
BED13F07
3D186445
BD484945
3D50214B
3DAF9C20
BE3EFC37
BE0DCC64
BE1446FA
3A299B6F
3D180E49
BE8791E6
BED5F9BE
BE02699C
BE4065F9
BD82A23C
3DC53E2D
BD08F862
BE0F74CD
BE566BE8
3D918C19
BE7AF4AE
3D59988D
3D54A0A1
3E02F76E
BD2CD7CF
3D0A9153
3E0A1EC5
BDD73C0C
BE56B93D
BDEDA5DB
BEA1F106
BD0E7579
3D854584
BE135C9E
BD134CE4
BD9E920C
BD6B7564
BE4ACD18
BE1F9C63
3EB6AF68
BEB7C6DA
BBA92E62
BE40B45B
BE4CB9ED
3DCA45D4
BBD245B3
3D05E3DA
3E170A81
3E6E5CD5
BD46EB0B
BEBD219B
BE16B8B7
3E7F648C
BD503750
BF119F3C
3B8101F3
BD6C18F8
BE368F8E
BEB1DECE
BDF87379
BDCC6CDB
BDFB0F6B
BDED9B5F
BE8B8327
BEB4ADBC
3E053F7D
BE230942
BEA4BAF9
BE29FBA4
BDB0ECB7
BE8D6ABE
3CE221C9
3E4E79EE
3C799807
3E325C81
3E4CE0B9
BDDE16D7
BEEB4092
BDDBD6A6
3E10980B
BEA142D5
3E67DED7
BDF594F2
BE7BA1B2
3E5BC8C1
3E65F740
3BAFFF37
BE4929ED
3E693D53
BE47D9DC
3E5EED03
BDBA7A85
3E1EE526
BE3D0636
BD710668
BE0D3240
BDEEC6BD
BCB72820
BE47DC7B
BE1A6EB9
3E94128C
BAB60F1B
3E39A416
3E547629
3E0F5233
BEB9EF52
BE9A47AA
BDAAF790
BE7325D5
3D16E158
3E053932
BB44EF89
3E03AC4F
3D149D7C
BE3BC6A8
BD92ABEF
BD2337A8
3E44B381
BD88BFC2
BEA751CE
3D4BD018
3E4284E0
3DA04966
3E2A1A0D
BE8000EB
BE80D62C
BE0ABBCB
3D3C243E
3DA1A3F4
BE39C27F
BE25F41B
BE1027D9
BE717F84
3E86468D
3D0CC576
3E0DC982
3DA4345D
BEA77EC3
3DE727DD
BC161805
BD872F34
BD8D21BC
3DAED890
BE00F4D8
3E81E0E7
3E385F07
3D3A7979
BEA7E953
3E6FC222
3DD6CACD
BE96238E
BED514E4
3D0EEBF6
BD960E0F
3E6BB906
BEBFD75E
BB9D6ADF
3D99CC75
3D9A61E1
BD70BF1A
3DD9999A
BE98CBF3
3E1CACD2
BE641030
3CD4E098
3DA83340
3E4BDE83
BE6A4724
3B934268
3E06106B
BE211BA4
3C921EE6
BC4F28C8
BDE46AE4
BDD291B8
BE3F65DC
BD682B63
BD14AD36
BE28BE2F
BCC959E6
BD800F34
BDB99ED8
3E688A48
BDC98E54
3D0A4D2B
3D3AFB7F
3E1699C8
3E184599
3C5783E0
3DB50D28
BDB02BC7
BD832096
3DC60BB3
BDB2AF14
3CB38D61
BD2D9AD8
BE8CC3A0
BB86833C
BE4701DA
BEDCA3E8
3DAC81D4
BD88DFBD
BD8559F7
3D1099E1
BD92B021
3DAC4370
3D995358
3DB7A67A
3E217657
BECD4BAD
3C1B77C0
3C9CAC08
3DE43782
BD26783A
3C32E9CD
BE5F4B1F
3D33EAB3
BDEF4624
BE21FA33
BE1B58D1
BD76922E
BE599956
3E58EDE5
BCE48840
3E2B3D08
BDB079E6
3E00DA5E
BE2B55AC
3C4F56EB
3E514BE0
BD8B31C2
3D5D54DA
BE236EF8
3E3BB40B
3EAD727A
BE7013EC
3DFA6D6A
3E144E51
BE37824D
3E1B7415
3E115FCC
3DE2E44B
3ECAA4BA
3EB0485A
3DC8CEF6
3E98C847
BDF0FF97
3EA48C93
3D027D89
BE01A0CF
BE8FAAEF
3DC4FA8B
3E715486
3EA61501
3EB176BC
3DF92EA5
BEAD7F0F
3D252696
3E35CD4F
3D46D2ED
3EB7F4BA
BE43F184
3E87357E
3DFE2260
3E27CBF7
BE08E608
BE509AAA
BE3A47AA
3E0B2CC7
BE4A708F
BE2EFA1E
BE9BF184
BD9C31DF
3E0A95C8
3E71ED9E
3D769FCF
BE0C02F3
3E870DE9
3E4C1E36
3E330271
BDEBFA09
3DE1ADEB
3E509D8C
3EA88CA4
BDD4573A
3D84A8C1
BDD9F98B
3EE2ED35
BDB36695
3D1A836F
BDDD1EDA
3E5C43B3
3D758299
BC470436
BE28E326
BD80DDC6
BE1E12A5
3C91DDE3
BE355476
3DAF166E
BEB8A15A
BE34E69F
BEB7D36F
BE58B114
BE0FFF37
3DED63CC
BD3E6B40
BD1B25F6
BEC5BAF5
BE9D2E0E
BD416590
3E0D727A
3DBC3159
BDEF0282
3BA9DE8B
BDDFF3F1
BDE5EFE9
BDE5A576
3CD5970B
3E5363B2
3C0C2A45
BCFE9B7C
3E17E308
BB91D9B2
3BABE6A3
3E171D60
BDDF401C
BE39CE8E
BD2B7BAF
3E5B54E3
BE4D8623
BEB870DA
BE1C2268
BD318549
3C7A4830
3DFF266C
3C81C4FC
BEB5E397
3E6A1EC5
3D7E7297
3C7E542E
BE4550CA
BDD5C076
3DF72CD8
BE558538
3F042C5E
BE9F33A9
3E6B1466
BE5A4FCA
3D628AA4
3E9AFEA4
3E3EBD0A
BDB2F4CF
BE3E22E6
3E209396
3E946AC2
BE80F40E
3EBD4888
BEF8C543
3DE6088D
3B6BFEC1
BDE197E5
3EA1B5C8
BD52FD33
3DB29B28
3C1A1BA0
BDC44D01
3D7DF7E8
BE119935
3DA51FC5
BB73BA77
3E8216C6
3DD1A438
3D641E58
BEACBFD3
3E3ADFB5
BE441B33
BD690BC8
BED2D7B6
BE68D64D
3E5394FB
3DCCDFAD
3D42B735
3D675793
BEA00C31
3DA98890
3E944BB2
3E53558A
3C8F648C
BDCE7EE9
3D922FAD
3E0DA6E7
3D959792
BD187400
BE5651B1
BD21F3A5
3E976AD7
BF08FCE7
BEB54D83
3E021859
3CFAC3EB
BCC1FEA8
BE1CD1C8
3DCA6224
BC6E30CB
3DB37EB3
BD9BBCF5
3D92AE08
BC61719F
3C2F9229
3CEE2004
3E135611
BEB02CB2
3DF11ADA
3E4B6FE3
BE49BE0A
3D998E11
BD78A3B5
3E16659D
BDF657FB
BE08C3F4
BD75BE5E
3D4FAACE
BC4111AE
BDC6AA08
3E229995
BED08440
3EBDAA50
3DC97E13
3D999243
BE40ECB7
3D8914B1
3E262A5E
BDBCF56F
BE64FCE7
BE6E5604
BE0BB1AF
BE910D39
BE589A89
BEC5CFAB
3C9348B2
BD118091
BE4F5904
BD9B9E8C
BE57B5F2
BEBFD4BF
BE4FEC57
BE2CCA2E
BE47D849
BE1BF7F0
BE0D1138
BEAA1DFC
BE4F1412
BD952DAA
BDA6D699
BB4F28C8
BDE6BA49
3E0C4A84
3E206AB1
3E48A116
BE0FBDF1
BC5184C2
3D31FFF8
BCBFC654
BDEA8976
3E7ED0F6
3E5E58E6
BEA775DA
3B8A697B
3C3F3387
3D9205BC
BE304296
3D694BBE
BD50BE94
BD773B00
BE0F3CB4
3E2289DB
BE4EFC7A
BD4091C1
BB7DC161
BBDB2F66
3E3013EC
BDEA8A83
BE693A2E
BE82A609
3D7EB8D8
3E9DC2B1
3CAC01E7
BEBB9043
3DFD4CFD
3D426FE7
3D5CD3E1
3E17C6B9
3ED7A312
3DCD759F
BC83D35F
BD19B6F6
BE8C302B
3E385597
BEA759AB
BDC80B67
3BFCD680
3DFD438D
3CAA23C0
3E8A4639
3E043ED9
3E390DE1
3E34306E
3C992EA5
BD1E83E4
3D50624E
BDC06EA0
3C46BCE8
BDAC8B44
BE2C9EED
3D6FA722
BD465B64
BE05E311
BE76F502
BD3BB731
3E83E2D6
3BB97FE9
3E9749AE
3D4217D3
3D938E6D
3DEBC622
3D98915C
3EA36241
3D872218
3E74C61E
3E166A98
BE86F976
3DD49ADD
3DFAA36A
BE3174C5
BDEE1933
3E5FE21E
BD65E786
3D0C953A
BE39717E
3D8A9E6F
BE5EDD8B
BE17D34E
BEC976FF
BE79CCFB
3E767408
BEADB09A
BE194749
3E0E39B4
BD6BEBE1
BC06A4CA
BE0869C6
BE834E98
3C6785B6
3D672431
3D9C94F7
3DCBD87B
3E1F2885
BDF191DE
BE5099E1
BD6730C6
BE7BA3CA
3DE1B973
BD9F8876
BD23A084
3D953826
BDEDC875
BDEBCF92
3E6AED14
BCF340D5
BDBAB325
BD25EEDD
3DB83BE6
3D891299
3E3E0BD4
3D9AC040
BE56A5D7
3D4CD424
3E07924B
BE3100E7
3E702FB6
BDF41FA7
3EA388CA
3D500D5F
BD110F52
3E018CE3
BE3CDCCA
3CA43782
3CD247CB
BD7EF7C2
3CD98394
3CBFF8A9
3DAA9931
3BE40853
3D94B05B
BD8A65CF
3DA98EDA
BDB50119
BDC04B7F
3E1954A8
BE01C7DE
3E34FB12
BD85614E
3E1DECA2
BDE6C4C6
3E337EB3
3E0087CA
BDC2DB62
BE421EA3
BCAE924F
BD961028
3E5EE200
BE95A986
BE8B2639
BEB2979E
3D9EBF23
3E21615F
3E70C240
3D919CE0
BDBCAF2D
3E433E36
BDC61390
BD1CE076
BEB23209
BE9B4938
3DC50F84
3DAEB91B
3E4D2D88
3E4359FF
BE69BE90
3D86B1E6
3D414834
BE0805A3
BEA6034F
3E59E6AC
BCD4B48D
BDD033A4
3E41DA38
BC1FDBD3
3E16F21F
3E3BB7FA
BEDC4F3C
BCFFFDE7
3E6BFBDF
3E0F4E87
3E96F694
3BAEC8D6
BEB353B5
BEAC3E32
3D8F25A2
BE1BC98A
BEE172EF
BE756ABE
BD5656EF
BEBAC1F4
BF0DF938
3D44BE40
BE550119
BE0908A2
3E2EFAE8
BD903D9B
BE83D46B
3DB83516
BC104B3C
BD907421
3E359D99
BEAF05C9
3E147BAB
BEDD306A
3EC8AC7E
3E0974A3
BD632C1F
3C86CA8A
3DA9A911
3E012839
3E8F5E85
BEC3F423
3E8842D9
BD31422D
BCC04428
BDFBED31
BCE56EF0
BD294574
BD6A0CAE
BE2022DD
BD4E53EB
BEDF4FB5
BE810D17
BE617226
BD11E322
BCE26F61
BD6DFF82
BDD7F7BE
3CC1D4B7
BEEBAADE
3DC2FDFC
BD84ED70
BE970AC4
3DE13B19
3E175D9A
3C8BD87B
BCCE4C94
BB6A8DA8
BD23F466
BD909635
BE17DE0D
3E1EACC9
3D80D23D
BCB14877
BE405EA2
BD90F51B
BE0367A1
BEE475C5
BE2E0610
3E28E475
BEA45BD1
3C80C522
BEA1E18F
BE171AC1
BE1A64C3
3C931EC1
BE1C521E
3DE7FB26
3DB99913
3EB3C600
3D98FC50
BDB36AC6
BD352114
BE65EF63
BD8E0B91
BE0BE48A
3DBA3F46
BE40D951
BE1AA8A8
BE2F7985
3D69F490
BE404817
BE5F1F58
3BEBAADE
BD131EC1
BEBAA066
BBB3C3E7
BDBF19D6
BDCE7F6F
BDC834D2
3DF5B142
3DC205FF
3D5BC98A
BEA4E896
3DAA3BDE
BD65E13B
3D0FAEFF
3CA1E1D2
BD3D1138
BE15696E
3E809D28
BE258927
3DCD5B68
BE9090B4
3DF6D8F5
3D9BB1F2
3E682CF5
BCCAE42A
3E0922D9
3DB0318C
BD5AB4B7
3E95DF01
BD724B77
BE201B86
3E47ABFC
3D206B7B
BDACF399
3D8BDDBA
BE5B6D01
3E902F30
3E2A6699
3DE02752
3E1A3D2E
BE9703B0
BDC5B9E9
3D8C3F3E
BECFD6D8
BE4B5675
BDAB4A66
3E28A505
3E60F66A
3E1FCA00
3E5F71A8
3E2EFCBD
3DD2CBEA
3E1D21FF
3E93B1AF
BEB308FF
BDA50939
3E6A8199
3DC91EA8
BEC16A05
3E5B966C
BEAE24BC
BCE9D0EA
BE8D6DC2
BD52FA0D
BECB4F40
3ED612A5
BBE392E2
BE818351
3D4BBA13
BE983ADA
BD008851
BD8382A1
3DED00B4
BCEAFCCE
3E2A1C26
BDF4E8FB
3D962A5E
BDD0B1FF
3D87DAA5
BECA977D
3CDDCC64
BE5B0037
BE91F3C7
BDB39192
3D61B9FA
BC18FA37
BE920275
BE29799E
3DC34EBA
BD88CC57
3D25907E
3DA5015C
3E1C3FC4
BE0E6D16
BD81CAC1
3DC7924B
3E4D2136
3DB07B78
3D181ADF
BEC937D2
BE5FEE2D
BE068124
BDBF9DF5
BE66412D
3DA6FE72
BDCD8D37
3E47A0B6
3DB82667
3D87674D
3D642396
3D36D97B
3D3DF7E8
3DA22707
3E2A77A3
3D7DD228
BE94FD6D
BD826890
3E51932D
BE758DDE
BDCAB474
BEAE136E
3E4354C1
3CBCA969
3D6441FF
BEADD5D4
BAB30B5B
BE5FFB8B
3D3CED91
BEA2424A
BEA6FED6
3C8B6B6E
BE3A5615
BE09741D
3D2C6046
3E6503FB
BEC0D2E5
BD36E829
BE52B1B3
3CCC7D1C
BE96AB15
BC5BB59E
3DABEA4F
BD8ED1BF
3E3E14BE
BDD9CF14
BDC32EBE
BCB4ACB0
BE33F0BB
3D60DED3
BDCBC622
BCD9D12D
3E0B302F
3E820946
BDF199BB
BCB1F46F
BE5B04AB
BED9BA80
3DA54584
3E90F990
BE4D93C4
BD77DC7B
BE53E6C5
3E325FA6
3DB42353
BE023960
3ED1B196
BCCDCA8E
BE8A1F08
3BBE1651
BE8967CB
3E049F0E
3E7E492C
BE0BFEC1
BDE64D3C
BDEBE8BC
BC3B517A
BE6744B3
BDF08A26
3D2C8605
3E2A979E
BEB3F706
BBFB6567
3D0EA6C2
3C254C55
3DE32A8D
BE38DD1E
BD2321A3
3E2D11BE
3E2A8E71
3E37B45F
3E26F1DC
BD52DDBE
3D19E40D
3CF5B5FA
BBEE9DD8
3E1BE447
BE802E45
BDADC3BD
BE19EA14
BE3C5BD1
3DAA8E2E
BE7650E7
3E631833
3D9B9303
BE0416BE
BDB1F8A1
3D903D14
3D0AE74F
3DA5A145
3D00B34E
BDD55DE6
3DD784EC
BEA21E1D
3D9AA609
3CAAC109
BDBD86A9
BECEF0F1
3D88C587
3D7CFE58
3E0891E2
3D6E1049
3D9E75BC
BE49DF55
BDEF9229
3DAD61B3
3D90635A
3DDC7F78
BEA8D003
BE6A1405
BBF3DC05
BCD80C31
3E3BF488
BEBE132B
3E964841
3CA224EE
BE9C47E5
BE471B04
BDC748E4
3E3AF534
3D87B3D9
BB5FEFBF
BD01BA80
BEA9904B
BE5CFAAD
BD8CD8DC
3EA4D291
BCA8954A
3E0A6A44
BE59A134
BD7A4D6E
BE194079
BD0FD3B3
BE565882
3EB52B2C
BE279421
3EC4E161
BE97A13C
3EA3A6AD
BD6976BC
BE155369
BE8649B2
3E191AFC
3D10EFDD
3DAE2A80
BE042FA5
BE7C536D
3EA21A0D
3DE14D72
BDD67903
BC86AF47
BD8255B0
3E0F30A5
3D365DC0
3E8A4378
3E584407
3DC7E1FC
BEBE47DC
3E460392
3E73EB7D
3D94B2FB
BED805C4
BDB2580C
3E11797D
3E3B0FF1
BE2BB2BC
3E98A8D2
BEBE5FB7
BDCBE059
BCAD234F
3E96E3F8
3E4EB9E5
BDF62068
BCA597D5
3E2583A5
BD0B4F1E
3D62962D
BE8C6BAD
3E060419
3D18D79D
BED8B2C8
BE9DEE9A
BC08765C
3E6F9097
3D6239E7
BE37AC82
BDF6733F
BE351B50
3D05271C
3E4D4952
BC8B9BAA
BD6A2E3C
3DEA5721
BDA03793
BD42ECAF
BE8E69CF
3E533C60
BE201472
3CE42BFA
BE5C5B8E
3CDC5B4B
3D2616B5
BE113DFB
BE839607
B99EDBF9
BE38F92B
BE8A9069
3E24D50F
BE6D206D
3E0A4A49
BCDEE137
BD70489D
BE7BFB9C
3D6F71A8
BDB1D713
BBE38A7E
BD09B0EE
BE312514
3DEAA002
BE399FE4
BDA4A948
BDEA7AC8
3E21E68A
BD5ADEA9
3DD322F2
BE32ABEF
3DE8A2EC
3E586402
3E1DF00B
BE13A323
BC8B47C7
BDBC7821
BE01B824
3DC132B5
3D52A62B
3E572C0E
3E077EE5
3D9FD827
3DCA79BC
BC8AEB81
BE9E1E2E
3D3F8983
BE098EDA
BC9C12F1
BE6D4413
BE3EE393
3DB63CB8
BBFF1950
BE418ACA
BE794856
3CC94706
3DFB55AC
3E1827B7
BE40841F
3E6C3BD6
3DACD317
BD0B7803
3D9EEE52
3E1095F2
BE3BE447
BE64388F
BE31172F
3DA3FAB1
BCB5B4EE
3E255001
BDE7631B
BD921038
BDCED5F1
BDE49342
3E59A73B
3E06C7A8
3D32A173
BE89DD7F
BE5378AB
3E10025C
BEA4753E
3E1AEFB3
BD30F27C
BDDEA3DF
3E903E85
3E68D478
3D87B56C
BE1CEC42
BCF80DC3
3DE2467C
3E614489
BE5875D5
3D86705D
3D8FDDA9
3DB8C650
BD97B95A
3D1796C0
BDF4EB9A
BDF25F63
BDCC4157
3DE23C00
BDE4A622
3D953CDE
3DB95033
BE32EF0B
3DB7B9E0
BB49A77E
BD8876E2
BCD2263E
3DA94CCB
3E129739
BE0EEB70
BDBFF2E5
3E940DF6
3D0913A5
BA562BF1
3D8C2ACC
3E402D17
3DC78D93
BE3F93BC
3DD0318C
3DCA979E
BDBD9DBB
BE16D699
BD8F3D3A
BE2DEF41
3DD018E7
BE5CFFA8
3DEB2F23
3E6348F5
3E2D14A1
BD428C37
3DCE13F5
BDE0C8CD
3E4D6ECE
3DC07A29
BE04217D
3DD58080
3E62B064
3E50F7BA
3E1FC116
BEA9973E
BE814E5D
3F007011
BDF62BF1
BDDBD2FA
3E1AE148
3D3CBA30
3EA433D7
BE047992
BE87A26A
BEE48E47
BCC4AC6D
3C8676A7
BD0714FD
BE8D92B8
BCBA68B2
3EB22EC3
3DCCE4EB
BEA6D549
BE83CE85
BE66D3B7
3D88155D
BE77A8D6
3DF8BC5A
BD981301
BE00F40E
BDC8A71E
BEA49A99
BD852935
BE0B6A1F
3E5EAF25
3E95B6E5
BE9DBFCF
3E351266
3CB3F63C
3D01BA80
3E1055FC
3E6AFF2A
BDBAB9F5
BE8803CD
3DD87E7C
3E63B928
BE1E69AD
BE35C67E
3E8DB0FF
BE2D102C
BE91984A
BCA847B2
BEA38477
3E122A6F
3D86B617
3EE7D695
BE646F9C
BCC32442
BEA8891A
BE0A08C0
BDF27AA7
3C9A9FBE
BDD7D49D
3EB4EAAF
3E04F228
BC196FA8
3E885F8D
3E3DAB5C
BE0C7FFE
BD9043E5
BE7A2AD4
BE30BFA1
3DB1FD59
3E2209EE
3C187C63
3D956649
3E06BF87
3DB1B478
3DC25205
3C9DE269
BE26748E
3E5988D3
BD82CB21
BE15E13B
3EBB4E12
3E5381D8
3C3F22C0
3E377AF6
BD15703F
3E85B37D
3E48AE32
3D99F0A2
3DCC11A1
3C1641F6
3C27589F
3E0500D6
3E3C0CA6
3D7FE3B0
BBAD8A11
BC387379
3CDEDD05
BCB2D6ED
BEADCF89
3E4EBDD3
BB5130E0
3D0AB2E1
BC02E87D
3E815AD1
BD4069E8
3E778034
3E407B78
3D8FF9F8
BDCBDEC6
BE48B114
3D0A3832
3E6D0B74
3D4CAE64
3D44B09F
3D5AD213
BD51A544
3E0DD7ED
3E749881
3D3D9019
3E891905
3D1A21EA
3C653A82
3CD34DF0
3A841EDE
3DEB1034
BECE0A85
BD9260F6
3D206749
3E968A50
BD01615F
BE41DF33
BDD2D5E0
3EAD57BC
3DF5B813
3DFC8323
BE948712
3CCB5BB4
BD9AC2DF
BBE3DE61
BD2CBD98
3E36AF8A
BEDFBF1F
3E655476
BBAD3E92
3E03122B
BF08A56A
BDE55C10
3E811BA4
3E76B3FF
3D68F8E8
3D2C258D
BE90574B
3DB90FB6
3D22680A
3DB66949
BE0E2AC3
BD9EA034
BD94E2B0
3DA4284E
3E0682B6
BB90ABB4
BE9010C7
BDB8A655
BE15421C
BECD4DE8
BED0CE0C
3E5D805E
3D9A5658
BDF23A2A
BE71ADA7
3D8147AE
BDB486F0
3C909071
3E302928
3E1578E6
BDE20A31
3C9B9303
BBAED99D
BC7605AB
BF096DC2
BDA64BA9
BDFC0B13
BDA0C06A
3E7BA9D2
BDEEA077
BDBC5E70
3D6B1C43
BE42E5DE
3DD3FEA0
BE31337F
BE102A78
3DF3CB3E
BE374C0A
3D7AC81D
BE3B6A1F
3CBA83F5
BD18793E
3D8DAB19
BE3977C9
BDC215BA
3DAEDAA9
BE8A8C7A
BE9DD767
BE444630
BE424F66
BDF8383B
BE57AB32
3DF37A81
3BA5BD94
BEB95C21
BE43B257
BE0CA6CA
BE6FBB51
BE85479D
3E615A08
BD000C95
3DF48E47
BDF8D4FE
BED4894C
3E0A8B09
BE15E28B
3DE59D13
BDDCB03A
BC4B85A5
3CEAD2DD
BE788095
3E9897EA
3CDB9E8C
BCF98FA3
BE384599
3E9739F3
BE90D866
BD9859C9
3CC32874
3CFD06BC
BE41F81A
BDD9EBEA
BE21F6CB
BCD3CDDD
3DC9F9CF
3DDC7AC0
3D51D68C
3CF0D1FA
3D4CD424
BDFA964F
BE499B2C
BE043FE6
BEA82ABB
3E1BF76A
BDA52828
3E03E74B
3E4045FE
3AB26395
BEA77B39
BDB23811
BDEE9468
3EC52FC2
3E345D85
BEE1E775
3EDED549
BDEEBDD3
BE1ADE65
3CC710CB
BE1C5437
3E8EFA1E
BCDB5D89
3E824053
3EB910E4
3D9FFA3C
BEB28262
3DECFE15
3EA23D71
3D8F7A0B
BEEB13BE
3ECA93AF
3E5CB1CD
3E679AF2
3E440DD4
3EAF01DA
BEA68B1A
BDF31983
3E41E9F2
3E777B39
3EA360D0
BE256F33
BE4E2196
3DB0AC3B
3C5C8755
3DF177A7
BE496356
BD324639
3DBF90DA
BE86E9FF
BE74FE7A
3E490EAA
3E581BEB
3CDE614A
BE887B9A
3D7A8A40
BD2AE8E2
3CD51B50
3E3C4220
3DDA5871
BE03FC44
3E68476F
BDBCA6CA
BD9DC50D
BEE4217D
3E1A979E
BCDB7CFE
BDE81909
BDC11340
3DE88723
BE0327AA
3EBCFEBD
BE39DC2F
BE2D59D5
BDF0EDC4
3DB6390D
BDFCD78C
BE0D4DC6
BE6E4BCB
BD3121AB
BD87B99D
BE63FE19
3E9B0AB3
3DE0A8D2
3E685597
BE258601
BEF25F20
BE92EA96
BE480410
3E2A1123
BD6E1694
BE17C526
3D4ECC81
3DEFE825
BD16D3B7
BECB167F
BE862F9D
BEA40F67
BE21815A
BE58E4B8
BDDAAE6D
BD414F8B
BE339C95
BE8C625F
BE513D32
BD8BD6E9
BE27ACC5
BCCC5DA7
3E8378AB
BE863E8E
BE04912A
3D093858
3D7EA4EC
BCE4F766
3E131594
3CDD5B25
BE9C4977
BCBCE853
3D6B2075
BE3D6883
3CA41C3F
3E3F9442
BE64A01B
BE82B064
3DAB87BE
BECAE126
3E22D16C
BF05E322
BC817B96
BEE543F2
3CA6F1DC
3E4984A1
BE76598E
BE7EF0F1
BDE399B3
BEAF75B8
3EE302F7
BE2E1B4C
3DEE4431
BE18FD1A
3D306706
3D103A75
BE21B9B6
3E125AAB
3D083FD5
3DF48BA8
BE8B2BBB
BE1CF462
3D291538
BDE77FF1
BE915400
3D82C0A5
BEA7AE36
BD76922E
3E04E443
3E5919AC
BEC015E4
BE717C5F
3E0DFE33
3D980CB7
3DB90D9D
3DD4A44C
3E01E215
BDECA687
39E1F7D7
BAABF76A
BB1D16FD
BE6DF330
BBC74320
BD833ACD
BD6875D5
BE2DFD69
BE9787CF
BDFC4C9D
3D94DC66
3DE15A08
3BFCF80E
3E3849CB
3D582129
3D87F1B7
BD0857F3
BE497E99
3E22C16E
3C6CFE9B
BE4AE819
BEB80B03
3D7EF8CF
3E258FF7
BDF4BF90
BE3C0A4A
BDA89FC7
3E54EF89
3D8CF8D7
3DDE6688
BE83CCD1
BE2501E2
BE4DF2AA
3E9D9429
BE43558A
BE1ACEAB
BB9F72F7
BCA62ED3
3E53BB41
BD700EF1
3CFC0B13
3D3D3E4F
3E6D1915
BCDD4A5E
3D3FB481
BD777186
3D057D18
BDBC219F
3E6A1BA0
BE0EAE5C
3D02F838
3E0866A1
BD508D4C
BD779B78
3E8A7807
3D84588A
BE4ACEEE
BE399631
3DDB23DD
3E468C26
3E3E5ABC
3E473BC9
3E886EC1
BDB8EFBB
3E0549B6
3E02C55D
3E948F97
BDE89870
3D2BFFCE
BD36AC64
3E1D690A
3CED655E
3D802AFE
BBB777D1
3DFFD36F
BD8709FA
3D23821B
3E1F5DBC
3E3EEAA7
BE7ACE25
3E16644E
3E3663C7
3E6765BA
BD12BB23
3DE01D5C
3CAE7925
3B9E44FA
3E588440
BD8F6838
BD9720C9
3E49BCBA
3E0D71B0
3E22ADC5
3E206035
BE167903
3DB148FE
BD53B7D8
3E3AF35E
BDD882AE
3D9CEE9E
3DCC3C19
3E02B40F
3DC83E42
BD96ADF7
3DDDC50D
BDCB7E4E
3BDD50A9
3D1D9903
BE2B6E0D
3E3498C4
3E4C9A35
BC1D7775
BCE6687F
3CCA9047
3C747B67
BE740B35
3D1D8948
3DD0CCBC
3DDB9735
BE590C4E
3C165F52
BE015F46
3E077186
BDEC8BCA
BDEA5D6C
BDD5C4A8
3DC22F6A
3D47C526
BB1D0636
BE6D71B0
BE9DA640
3DDAB29E
BD9123C4
BDCBB906
3DB1CFBC
BA477DD8
BE068FD2
BE3BC7F7
3E2F351A
BE995161
3D9B38D6
3DB6366D
BC5E1199
BD78A4C2
3D096FEB
BE4F0F17
3E35BBBF
BEA04945
3E5F7B18
BDDFEDA6
BE788E37
BE2FAF42
BD6C0831
3E206B38
BE3ABB02
BE1B5FE5
3D17AAAC
3C66A769
3D618EFC
BE1F0C35
3CCAA327
BE789DAE
3DDB8F58
BDD4C87A
3C4B6849
3DF9F666
BEBF1FBC
3D00FFDA
3D149B63
BDE6B485
3C7DD228
BE50984E
BE21A6D7
BDD0FCF8
BBC6045C
3D31C971
3C80F55E
BEABCF0B
BDADC8FC
3D931C22
BD6D9275
3E498351
BEA67275
BDF04EE8
BD5C1B54
3E0F67B2
BED2C669
BE6746CC
3E24723B
BDEC985F
BE616F00
BE0E7F6F
BE8D06DD
BDF71002
BE273D19
BD453F3A
3DCEE6B8
3D06CDAF
3CF02603
3DDD7B20
3DF23B36
3DA959E6
3B51B717
BD8CF399
BD9545C8
BF211F3F
BE0EE45C
3DBB19E7
3E0D06BC
3D83D578
BD1D6063
BDE8A8B1
BDCD0353
3DBF27FE
BE42DFD7
3E2F7E3D
3D86BDF5
3D3D5ED0
3E826330
BE30435F
BE7EC4E7
BE678B7A
BE58A00A
3D8F3D3A
3D9420B4
BE6DDF01
BE3FE4BD
3D249907
BD74A98B
BD9A3550
BE039EF1
BE0C5D20
3D85E2CE
BE7F2E49
3D3C9EED
BD97FA5D
BD13DD98
3CFE9531
3E14FC1E
BE25275F
3DBC10D8
BDCA686E
BE5419A0
BE7FB481
3DFD0529
BD549E88
3CDF266C
BD629414
3E567514
BDB0A0B2
BBA25D8D
BE701755
BD967E41
BE4C432D
BEC70ED4
3DCF4385
BDF7C5EF
BDCC4589
3BF0AE53
BE867126
BDB4256C
3D1FA872
3E1D2029
BC049CB2
BDC05AB4
BE6903EA
BE849C91
3E739ABF
BC20BA1F
BE862520
BDF68AD7
3DF3AE68
BE3E3194
BDAF544C
BD6C7EAE
BE375E63
BE72ECF2
3AC7192F
BE736827
BDBCB924
3E188A48
BEA956C1
3E043809
BDA234A8
3E2D19DF
BE828C15
BE155EF2
3CB4FE7A
BDE9563B
3E8E1A82
BDF04146
3C9CF56F
3E500714
BD1C486B
BE6D4C34
3E515A4B
3EFC5283
BE17B396
BE87FE09
BE20520D
3B84406C
BE23DAF9
BB851A87
BDD74ABA
BDBD4520
3DA4CCEE
3DC6DBD7
BDE876E2
3C0AE31D
3E6E5083
BD9D73C9
BE0D7C70
3D365FD9
3DC4FDB1
3CD45E92
BE37E804
BDD53D64
BE4B8BAC
BE7C5FC0
BC634331
3DCB8844
BE340208
BD96FE2E
3E952652
BE5DACAC
3EA63DC5
BE8C6FDF
3E07A744
BD3F3ADE
BE93AFB8
BEA7A312
BDF499D0
BE0303C0
BDD804DA
BE6CF8D7
3E1FA483
3E1A7AC8
BE2F8AD2
BEB6EAA7
3DE9BD84
BE8C4A1F
BB1CC31A
BE292DDC
BE125786
BDA1F96A
3DAF86A1
BC775D9A
3DCC6690
BEBCE593
3DD647BB
3E5A5E78
BE6A3BDE
BDB06D50
3DFA658C
3E8B1F47
3D10F1F5
BD8A9D62
3D9DB8FE
3CD7CF5F
3D89E908
3DF34B51
BE2554FC
BE3B2075
3D06ED24
BEC345F1
3DF82907
3E455150
3EB58D15
3EAF0004
BEB303E2
BEDF0953
BF073461
BE16AD71
BC861A61
3E85DF87
BE9D1EDA
3E5D4AE4
3E1C01E7
BC82CB21
BECAE643
BEF36F5D
BE665775
BE864B88
BE624F22
BDBA0514
3DCD24E1
BE480C31
BEC7D114
BE8FAE58
BE137718
BD36A1E8
3E48BF7F
3DEBE7B0
BF133344
BE9E6A77
3D042D8C
3D5615EC
BDAC397A
3E0BA451
3D0FBCA1
BED7CA64
3E91856A
BDDBA12B
BD22C775
BE66EDEE
3D811B1E
BEEA31C6
BE1EB789
3E54E486
BE8DD91B
3E3A3337
BDDA4378
BD6F62FA
BECEA52F
BD16BB99
BDEEA423
BE5FA9C1
BE5DF5CF
3DFD06BC
BEC278D1
3E487CA6
BE102AFE
BD521DDA
BD98CFC0
BE1DCA08
3CE57109
BCE06962
BE9E06FB
BC727781
3D8BB2BC
BDEA697B
BE2CF462
BD3253DA
BE01D5C3
3E040A6C
BD5E7FB2
BE2E568A
3E65EF63
BE8DE02F
3E0D7A57
3DC12514
BE8B53F8
BD461F9F
BA6F5665
3DA1B003
BC788FC9
3D621859
BBBC408E
BD8EE286
3E1E9AF6
3D9ECEDD
3E407FED
3D611A97
BE8643AA
3DE1AC58
BD27DCBE
BAC1333C
3BF23897
BF1571B0
BE6B7953
3CD716D3
BE080FDC
BECE8449
3D336AC6
3DFE7B81
3D9369BA
3E6FCC9F
3E5CB5FE
BC171C11
BE995853
3D9E1544
BDE08D09
BDB440AF
3E11754B
BE9C4114
3D84B231
BDE384BA
3D8E47DC
BE43C7D6
3DFC6C98
BE9A0621
BC9AA1D7
BE4297C0
3AF2E05D
BE13FFAC
BDDB0EE5
BEBC3B92
3E23482C
3D66D699
3E6693C0
BDB8AC9F
BE5D5065
BE9BD231
BD9252CE
3DB6E158
3E52CC2D
BE0A7DAA
BDCF40E6
BD8AAB8A
3D0EDA23
3CAE9036
3E7A450B
BDEFBF40
3E297BFA
3DC4EF03
3D8EB463
BE3E30CB
3E53FA2B
BD9D2524
BD7544BB
3DA2A023
BE153C58
BE3965B2
3DBF2FDC
BD0B5137
3C99285B
BE46EF80
BE53AB00
3E2A93AF
BD89BD84
3E86EFC3
BD156D1A
BEC5306A
BE543AA8
BE479BFE
BE2A2AD4
BE0B3461
3EAB55EF
3DB54196
3D350A03
BDA19C9D
3D2F0282
3E105F6C
3E01882B
3DA753E7
BDB56B01
3DC05469
3E51AEB4
3D768DFC
3E071194
BE9B293D
3DCE4862
BE2C7043
3D5159C5
3D83FB37
3E011D7A
BDEC7B03
3D460FE4
BC312902
BDFE9079
3D5044F2
3D86E547
BD2DD26B
3E0AB14F
BD05E6FF
BDEF41F2
BD1A8EF7
3E5D61B3
BE393FAF
3E7D755C
3BC8A372
BECF5148
B99A2403
BDE13123
BCE57B85
BABB9064
BC7C7E6B
BE8502AC
3E6E8188
BE0B8844
BB804966
BE9764F1
3DFC7582
3CCA4096
3E105F29
BDADB489
BF0AE222
BE2DD484
BE8F3FD9
BC2426BB
BD60DFDF
BDCC3B92
3E3B9F56
3D109BFA
3D8E3044
BE41B5C8
3C11D580
3E7ED80A
3D343E96
BE93A7FC
3E1B5BF7
BD0A0D35
BDA2A2C2
3E5E429E
BDB539B9
BDE029F1
3E161672
3E1D5E4A
BDBD2418
3DF0BA62
BE3CB74E
3D7EAF68
3E592E62
BD880AE1
BE0C6A7F
BE4BC558
BED19653
3DB81733
BDA26D48
BEB402F3
BD86B724
3DE72EAE
3D85625A
BE132EBE
BEB81CB4
BD9DE15D
BE966602
3E3EF49D
BE74039B
BD2EC7C9
3D9BA6F0
BC9BD406
BC2BA7B9
3E0AC604
BE5C8191
BE3D1288
3C83B603
3CA730C6
BE1F572E
BBF605AB
BE9A4D4D
3E06F8F0
BD28FE26
BD474214
BEC9E860
3DECACD2
3D1E3FBC
BC200193
3E17B396
3DC22707
BEA5BE3C
3E50AB71
3E97A4E8
3D549D7C
BDBA7D24
BE0EA290
BD9FA7EB
3D85ADDA
3E33EF28
BDCF98FA
BD36E71D
3E10281C
3E0AFAF8
BEC02108
BEAD2EB6
3E09181A
3E8A7009
3E96887B
BE85F15A
3E4B3FEA
BE1D4AE4
3DDB5FA2
3D697BFA
3E04CAD5
3DB1A21F
3D103750
BCC48ADF
3D9CEE18
BEA2AC32
3D7F1412
BE644418
3ADE0935
BEF90FB6
3E7FBEFD
BC010A57
BE07EAA3
3DBD31BA
3C20B1BC
3E832B13
BD05D0FA
3D73C600
BECCCFD1
BE2DB5D9
3EA474FB
BE2F4E87
BDD0E6F3
3C4F28C8
BC822BBF
BCF14FCE
3DA5AD54
BE5BAB65
BEBBEEC4
3D3B2357
BD33C70D
3EC79746
BE1F505D
BDC1A3F4
BDCA7E74
3E64FB55
BC727350
BE5F8B15
BE2B8994
BE1A337B
BE5333FD
3E3B4FE8
BD786D2F
BE946ED2
BE7679CC
BD337B8D
3E14A98B
BDA2278D
BE4D8A55
BDDA11A9
BE26A487
BD374ABA
BEBA1145
BE9A2920
3E810881
3E8ED656
3CD58644
BE138327
BEF5F80A
3CD918A0
BD8F4D7B
3B9B7BF2
BD58B2EA
BE9310DC
BE4702A3
3CA393EE
BDD4D7AE
BDCA88F0
BE94DF8B
3E171AC1
3D4E0978
3E1A86D7
3DCCCCCD
3E525AEE
BE40E12F
3E9C1A26
3A53CFF6
3E20AB2E
3E4164C7
3E4645E5
3DBA6BD7
3D5B8455
BD5C23B8
3E8905E2
3E83A8C6
3D5D96EA
3D9ED289
3E3E3822
BD534EFD
3DB31FCD
3E1498C4
3E354C55
3E9520D1
BD15A07B
3DCFD439
3E8E0568
3E1D82FD
BDCC2BD8
BE5E03B4
3DE8A611
3EC73301
3E97049B
3E4C5E70
3D183E85
BD16F21F
3E242529
BE23126F
3DABC0E4
3E2CAC08
3E55186E
3E1F8A8F
3CF008A7
BDF49731
BE29999A
3E9D015C
BD83AB00
BD13C89F
BE741312
3E567A10
3D91EB85
BEB2DD16
3E168167
BE8B62A6
3E133F42
3E8B0D52
3E226B72
BE4B9A5B
BC95F02C
3E4D8F0C
BDE0AA65
BD07CC7D
BE10928A
3E6CB6C8
3DC28028
3E005BC0
3DE5AEE6
3DCE6EA8
3DD84B1B
3DDB291C
3DC6CF42
3E79906D
3D8C62E5
3E8E93C0
BE1BE1EB
BDC8CB4B
BA734507
BD8AD602
BE03C57A
BE7291B8
3D8601BD
3DEEB0B8
3EAAB8C7
3E6DD441
3E82A759
BE68882F
3DA58A33
3CD186DB
3DA8B7E5
BC1799E5
BDB204B0
3C89613D
3E3EA0FD
3DB00608
BE20E23B
BC82A561
BDC37586
3E36F588
3D978466
3E2469D7
BEB6F71A
BE492F6F
BE6BE015
3C227AEA
3DD4E6E2
BE3F0CBB
BD9A543F
3D71E8E6
3E22ED78
3D5E6EEB
BEAA337B
3C8D1740
3E7F648C
BBA4B988
BDFD1CC1
BC9D7343
BDCC5868
3DC29AE5
BE365387
BE46C54C
BE5EE3D6
3E461E0C
3E02AFDE
BD3A8F7E
3E1DC5D6
BD1CD5FA
BDCD16B9
BD55054B
3E2F3ADE
3D406AF4
BE05D851
3E88331E
BE41F601
3D28D328
BE420792
3DB0D520
3DBBE660
BDECDAF5
BD876295
BE51BE2B
BEA23AB0
BBAB7132
BCA8112C
3DC2B303
3C771A7E
BE5A5FC8
BE32D2BB
BE680F99
3CBC408E
BE7D36F8
BBE5BC88
3DA2584F
BEC5A9A8
3DFE3C10
BC108E58
3D69F7B6
BE2ACF31
BE0AA716
BDEB3AAC
BDE91B82
3DE15C21
3D306B38
3DCEC17F
3DC2656B
BDCE8E1D
BD8C4C59
3E1CE853
BCBC169C
3E0D2807
BEAD0636
BDBE1112
BE160C39
BE14E486
BD570718
BD998D04
BDF52D23
BE5BB2BC
BD5E2691
3C559D56
BEB7110E
BD526741
BD95EB74
3D91F927
3E39E1F4
3D868A93
3A837718
3E23FB7A
3DB7739F
BDFFEB07
BC74623D
BD1831F0
BD2FD652
3E1DA61E
BBB25B31
BE651E32
BE0E568A
BE834DCF
BDE1A049
BE3C3A86
BE83C298
BCF56EAD
BD981BEB
BE838716
3E3113C7
3DEC89B1
3DE2D83C
3DDC193B
BDAFC9BC
BD4AC8E7
BE319653
3E7D45A6
3E1F92B0
BDA8B652
BE7ED203
BD5363F5
BD60D77B
3DBB0EE5
BDF0B73D
BD875DDD
BDF865D8
3DAB8B69
3D55FCC2
3C241E58
BE9EAC64
BB103EA7
3D513C68
BE850093
BE07D029
BD36CEFF
3D0BF6E4
BE8B43B7
BE0B9885
3CF739F3
BE16D656
BACFBFC6
BE1AD795
BC8053E3
BE585CAB
BEAFC676
3E8E8FD2
3D158644
3DF40789
BE9C96EE
BDF318FC
BDD443D4
3DF0CB29
BEA02EA9
BCE52370
BEB986FD
BD8F533F
BEAAA8CA
BD96451C
3BB45283
BDF4373F
3E91999A
BE189481
BE3F8DF8
BE4E6B40
BE07296F
3D22E7F7
BE8068DC
BE123E5C
BE93B42D
BE2089E3
BDCBE836
BD03C3A4
BEB991FF
BD772A39
BD555D5F
3E49E908
3D75653D
BE240A28
3E93777D
3E285EC4
BEA3A6F0
BE98635A
BEB6E8B0
BDCB90A8
3D77C676
3DC2CC2D
BE9EE5EF
3E1E5D9E
BEAD2EF9
3DA61C7A
3D703D14
BDD5219B
BE629414
BD3966BE
BDA8EFFE
BB8F29D4
BD3A2058
3D0766C7
BEA192C9
BB55A5B9
3D805469
3C082F0E
3DDAB5C4
BD0A6A87
3E3BB342
BE804EA5
BDCF01FC
3D5BC87E
BDBBB624
BE894424
BE7542E5
BE5B6D87
BDFBE447
3EBBF749
BD86E5CD
BDF27F5F
BCB93CCD
3C20BA1F
BDB3CDDD
BE6ADE65
3E454478
3E698CC1
BE96221D
3ED40D4E
BDE4E26D
3D4E3151
BE82DA98
3DE772D6
BEA65F31
3DA0F6F1
BDC73CD5
3DD409A2
BE261BB0
3DC87981
BE7472C1
BE296745
BE6B50F4
3DB74DE0
3E746DC6
BE6180D4
BE8EE43B
3D917D6B
BDEA3F8A
BDD1DDE3
3E2E69F0
3D9A7653
BD9E15CA
3AC7192F
BD152E30
BEACC89B
3EA2176E
BE8CFDF4
BE1588A0
BED1A8EF
3E90C415
3D809E56
BD38D823
BE06D549
BE998B0D
BEB93BE2
BE7DCB58
BDA20818
BDB5C63B
3CC62A1B
BCDD3133
BD347736
BE46A6A0
3DE8DE2B
BDCCCC47
3E3163FE
3D4298CC
BD8F40E6
BDA807BC
BD3F290B
3E36EDAB
BE6DBB17
BE3B98C8
3E9435CE
BC2A3AD2
3E1733EC
BE4B9842
BEB3D31C
BE1A5050
3DEA94FF
BE38E92D
BE4B6028
BD64DC23
3DDC5719
3D5B6806
BCE33EFF
BEDD8EA8
BE1414E8
BD41797D
BE607A29
3D9D7C2D
BC3C2331
3DCEAFAB
BCC408D9
3D9E7AFA
BDB95C42
3E5826EE
3DF0FBEC
BE93193F
3E1EAAB0
3D8F75DA
BE295F67
3E012DFD
BD44D445
3D8CD424
3E7BF727
3E3579F2
BCFC9DE0
3B565E46
BD314877
BDBD041D
3E8A1B5C
3DF043E5
BD84CD75
BDAF1ED1
BE406CCA
3E02BC73
3E3610F1
3E673A36
3C929CBB
3E63B320
BDE05144
3D537F39
3E1D1E97
3E22AD3F
3DAFE3F3
BCAF76E6
BED8EFBB
3B69C454
BE33CB81
3C98244F
3E12120E
3E6F2A5A
3C09ACBD
3D8B1E5C
3C81E8A3
3E868C48
BE5DF82B
3D0ADEEC
BCE0EB68
3E7A044B
3E0A68B2
3E2F50A0
3D00D1B7
3DE16B55
3DAC6EF4
3E108B76
BDC7253E
3E2A89B9
BCAF5126
3E7FE692
3E61E604
BEC77CEE
BD3E846A
BDE79B35
3E4327AA
BE901BA8
BD1BE8FF
3E311CB0
BE06262D
BE9E7968
3CB6B6E1
3E80409E
BDB29E4D
BCE0F3CB
BE96262D
3D577C89
BDDCAC08
BD78348F
3E055044
BDBEDD05
BDFD0E99
BC3AD7D8
3C9FB1E2
3E9F7319
BE8B213E
BEED33F4
BCFCD899
3D5A49C3
3E2C64BB
BE8EF9DB
BDEE8640
BDBBFCEB
3CDB6C37
BE877575
3DB7F51F
BE7BD274
BDF65775
BEAF689D
BD474D9C
BDBC9DE0
BE1BA27B
BC569D30
BE797247
BCD612C7
3C3851EC
BE32C301
BCCDD2F2
BD0F1801
BF0C5FE1
BE7A4D6E
BD9784EC
BE8BDE83
BE209742
BEAB3F42
BE932420
3C662995
3E487443
BC846413
3CAA7BD5
3E182CF5
3CD627BF
3DA48E04
BDF785F9
BDC944ED
BEAE8EC5
BDB38D61
BE1F0A5F
BE5174C5
BE4C80C7
BE263B25
BDDAE89F
BCF4F50A
BE950785
BE93A754
3D8047D4
BD976B3C
BBA9EF52
BD6568A5
BD209460
3E6B45F1
BCD72BCB
BD891C8F
BDFD7ECC
3C7BCE42
BDAC3D25
3D98F712
3E2B838C
3E3F1AA0
3D302603
BE81F773
BCE9F490
BD866666
3AA6B93D
BE732053
BCCB9A9E
3EA4A772
BD8200C1
BC0F4F94
3E11C79B
3D5BD2FA
BD10917D
3E19741D
3D343B71
BD3B6241
BEEDDA27
BDE7F456
BE829824
BE321145
3DFE5FB7
BE34CC68
BD84406C
BE5129CC
BE067E41
BEAA7B4E
BE8E34B9
3D9AC8A3
3CF1CB8A
BD03A10A
3D6EA52F
BE20D068
BD0AADA3
3D75DCC6
3E04E832
BD8F0282
BDD9389B
BC3FD2E9
3E6E08F2
BE3E7CD0
BDA749F1
BE9FF306
BE75C52E
BEBD4888
3D24A59C
BEAAAEF3
3DCFABDA
BE2BA4D7
BD8D5F9A
3CC2E126
BD230447
3E0B72C5
BCF1AC15
3DE16B55
3C07EBF2
3D32EF0B
BCD35EB7
BE4D9770
BD4D8DBD
BDC6BA49
3E45CB36
BD41ADEB
3DAF77F2
3D914C23
3C2D4F59
3E503926
3D6C929B
BE794318
BDAB484D
3E51F4B2
3CEDEB96
3D84D2B3
BD07B784
3E1ADD16
BD8FF7E0
3D8D56B0
3BB3A259
BD0AD688
BE01FD9C
3E78BB0A
3E2A5050
3DE6AFCD
BD8B8CFC
BE409C3D
BE016D6E
BD625FA6
BC344E51
BE3DD97F
3DDEBB77
BD7C6DA4
BE9CEC20
3E979FED
BD94866A
3E4B3850
BE02FCAD
3D87A4A5
BD9A921D
3E031A8F
BD76DDAD
BE9A339C
BD379D91
BE327286
BBD1B717
BD7FED20
3E48711D
3E331E3A
3E3C13BA
3B96E58A
3E26A6A0
3DFC2B0F
BDFE3B04
3E087161
BD399807
BE67075B
BCBF077D
BDF2B23A
3DE407CC
3E91B0CD
3E1D199C
3DAF75DA
BCDF090F
BCAE019B
3DF456B4
BD9C2225
BDE54F7B
3D9A20DE
3DD84B1B
3EABA83F
3DF0DA5E
BEAB4D49
3E011905
3DC84513
39A8D21C
BEB8B1DD
BEACAB60
3C329E4D
3E3E38A8
3D9CF0B7
3C8CA3E8
BE94C35D
3D7F20A7
3CC2DF0D
BE8161E5
3E553DA7
BE820CD0
3E004C49
3D3F20A7
3E24C37E
BE8FDAA5
BE284A94
3D241A26
3E27A9E3
BE9352EB
3D09A565
BCA9A3D3
3CC84945
3E193E60
3E94E13F
3D0193B4
BC50678C
3E461672
3BF0A5F0
3E6110A1
3DCC636B
3D7D8CF4
3EA52D66
3E21040C
3BF7E3D2
BE99B5E9
BE104296
3D0D50EC
BE5F0803
BDA27200
BDF22EA1
BE7A1CEF
3D6F6B5D
3D2085B2
3DF03C8E
BE821EA3
BCA5F202
3CC3FC44
3E24241C
3E26B1A3
3E22352F
3C22DB62
3E22C626
BE8F294E
3BA4CA4F
BDF1C865
BD3D1EDA
3DF2263E
BD21BB06
BE65AEA3
3D9292C5
3E7D5561
BECBD684
BED25482
3E830319
3C4957CD
BD2E5471
3E01CDE6
3E13B4B3
3DC5D207
3D868FD2
BE37EF5B
3D98CD21
3A94A2BA
3E506C44
3CABF551
3D5E5083
BC55171E
BE068EC5
BD82F9CA
3D91C64C
BD727568
BCC7DA1F
3DEA3A4B
3D5CFEDF
BDCEB0B8
3C8752DB
BE833E36
3C1D9903
BCD4C122
BD1B9410
BE897D07
BE0063E0
3E7661AE
BE3DE00D
BDB3E5FB
BE95BB7B
BD6BB342
3D11C2A0
3E48ED5F
3D7A43FE
3DB73B00
BE278078
BDA727DD
3D84E93E
BCFA5D29
3CA235B5
3C9A8AC6
BB12AB69
BE368124
BED29DC7
3D8F2496
3DFD55E7
3E9FF7E0
3DD666AA
BE5BEF8D
BDBA42F2
BE39BBAE
3BEBA27B
3D24C943
3DF8BCE0
3DEFA2F0
BE601366
BE5BC3C6
BCB8C112
3E022EA1
BE1D0FA6
BE038DE7
3BE46499
3EBE87F4
3C857D18
3D0F0414
3BDA87A0
BD53458D
BE24280B
BE94AF0C
3E59274E
3DFBFA4C
3C4286F9
BEB97F84
BE2BE729
3DF2085B
BDCEF912
BD9E4580
BE1ACAFF
3C0D972D
BE941637
3DAB0E1B
3E2C61D8
BE5093D9
3DA80F13
BE867408
3CAB90A8
BD64B018
B994E5D6
BE2A515D
3DF7D1FE
BE075B81
BEBE6517
3DDCE747
BE58A266
BD2E2435
3D86D04E
3C13C89F
BE57B5F2
BBD8A97A
BE1B10FD
3E0B2075
BDFF559B
BDF950B9
3DE846A6
3DD2977D
BE0CEFAA
3D3B517A
BE2620EF
3E05AFF3
3E8276FB
BE19B414
3D518E32
3E773FB8
BDB4B381
BE1AC797
BCA54E6E
BD2FC697
3E24F095
3E081A9C
3E423960
BC043809
BDF48B22
3E5BC340
3D880AE1
BE94AF4F
BE863C97
3D880E8D
3E841073
3EE5EE9A
3EE9B4DD
3E61B542
BEB0B9BB
3DB4B8BF
BB7605AB
3E8BF2D4
3EB6AC43
BE13BD16
3E111772
BE5FFB05
BCC154CA
3EB67126
BC27C5AC
BE17C4E3
BED0CBF3
BE379DD4
BD8D1394
BD9AF640
3E15E1C1
BCF865D8
BE008249
BCFF993D
BD7B9E06
BDEC6A3C
3E9BBBA5
3E6B6630
3D805BC0
3D867F0B
BE06C2AD
3E2F6BE3
BDE77DD8
3D6428D4
BEBEDA88
BE317B0F
BE8022DD
3D9F7404
3D73B320
3E97F801
BD1E6688
3C699631
BE3F4667
3E5BA6F0
3E9C61FA
BCF7DB6E
BD1CA5BE
BE83953E
BE326890
3E007A6C
3E1B73D2
3EAAB7FE
3EA960FA
3DD3C4F4
BE0AC4F8
3D9C970F
3C4621B8
3D2A5C5F
BE28FA7B
3DEFC611
3CFC3B4F
3E15DD4C
BEB4EC42
BDC3211D
BD433D6C
BB9D94D1
3D19285B
BDCF6DFC
BE22ECAF
3DE923E6
BD0E91C9
BE531A09
BC7F8EC1
BD564D7F
BC83D9A9
3E2E9CCB
3E714DB6
3E298E54
BEA6B442
BC86D0D5
3C56FDA8
BDA8C261
BE36C871
3DED80A1
BDB94962
3DA39E6B
BE7FE3F3
3D3C9689
BE80DF7A
3E8339C1
3C46327F
BE3CB791
3E9B5372
BD444BF5
3DCAF145
BE39E908
3E1871E7
BD9F3BEB
BE3209AB
BCE03B3F
3D7FD0D0
3D71E18F
BE22F9CA
3DDAA79C
3E027A20
BE15A8DF
3E2641F6
3EA188F4
3CA67E84
BEBACFD9
BF046E5D
3D9106EE
BE824EBE
BDB72FFD
3DEBA062
3E1A9EF5
3D411C2A
BD7F3CF7
BE01083E
BECA2318
3D4126A6
3DA04966
BE396AAD
BE9ADFD7
BCA964E9
3E89C92E
3E8525EE
BE0D96A7
BDEFDC9C
BEFD8A98
BE8FAA26
BE6328B7
BD514E3C
BAEEAE9F
3D55E17E
BE13B8A2
BEA564F9
BECEEAEA
BE9BCF0B
3EAACC2D
3E2BA98F
BE0B2E17
3E35FA66
3D4E3EF3
BCFD4E09
BD869F8C
3CAD83C7
3E12D9CF
BE32E558
3E29AA1D
3DED099E
BEA052B5
BE0E25C8
3D3AA151
3E44FD6D
BEDEB789
3EBAC322
BDE88DF3
3EA51F1D
BDC3CA75
3E17368B
BEAC9F30
BE9443D4
BE4A771D
BE5B773A
3BADBC66
BEB8DFBD
BE32E169
3CA491B0
BE872C95
BE01CDA3
3E193922
3BE935B9
BE37A9E3
BE293FF2
BDA54717
3DA97F20
BD96B65B
3DDAB53D
3E199243
3DD71C97
BCB84556
BBD594F2
BDD636F4
3B370AC4
3E444BB2
3E824617
BE42E276
BD876534
3D94FF00
3E0B3073
3D0739B0
BE47928E
BE237C57
BDEF9B99
BE440032
3DA99C7C
BD06AC21
BE316EBD
BE2012E0
3C49FF93
BDC5D7CB
BC082ADC
BB1E774F
3DA8027E
BE45BC45
3DBD14E4
3DC2C0A5
BE379464
3E06A982
3D206962
3D078855
BD7B0E5E
3D1935FC
3D866BA5
BE887A29
3C0FFB8B
3E07CF1C
BD6C58EF
BE61F538
BCA9B49A
3B716F44
3E09EADD
BE0FE9B8
3D962CFE
3C73A14D
BE005293
BD6EE0F4
BE22FD33
BE2CF206
BCD6ECE1
BEB80453
3DC9F490
3D6C96CC
3C5887EC
3E98C3B1
3DC89FC7
BE9328FA
BEDDE1C1
3DB45309
BE789E34
3B5E7EA6
3C992A73
3E4F6662
3A5844D0
3C1A5658
BE051A00
BDD70A3D
3C7C7A3A
3D12B4D9
3E3158FB
BE352696
BD52E83A
3CC78C87
3D67C4A0
3D6CB85A
BE7A31E8
BE228A61
3DFBF9C6
BCD0EFDD
BD4563ED
BE5DD00F
BDBBA776
3CEE02A7
BE6D080B
3DA74539
BE2DDCA5
BE3C4E72
3D340A28
BEE0203E
3D83D1CC
3D30C459
BE3297C0
3E1A20DE
BCBE5322
BC209891
3D25E786
3BA8F3AA
3E5A78F2
BE89C53F
3C06EC18
3E1F83BE
BDEAAA7E
BEC4358B
3D016052
BCB3DAF9
3D9CFBB9
BEA4CA2E
3D71B585
3E4B9303
3CF78573
BEC41A05
3DCBF013
BDB8D9B6
3BA65493
BED65ECC
3D900ABF
3D47A5B1
BEBE13B2
BC5E3327
3E1800EB
3DCFAC60
3DFE95B8
BE11F751
BD9C2F40
BEF37B07
BE1668C2
BDF7939A
BEB03F70
3E2BA7FC
BD5EEFE5
BD6B734B
3E156324
BDE173B8
BE198E54
3E7BB774
BE4A5E78
BE329670
3D1E68A1
BDCAC6CE
3DB1372A
3D6FA722
BDF531DB
BD804F2B
BD5B2C41
BCCF7015
3DB2C7B9
BD94DAD3
3C22595C
3DDC3937
BE1EF0AE
BD3FB9BF
3E2BC5DF
BE87F60A
BE887CE9
3D08CF7D
BD007033
BDE6E760
BE9FBC3C
BCB5EB74
3D152D23
BEB66CB1
BEBDCBFF
3BD4BAD8
BE8E08D1
BDA2541E
3D6F9FCB
3B922531
BE6F3882
3E7A860E
BE6D1202
3DECEC42
BEC2072D
BCC77BC0
3E6C853C
BDB51E75
BD992C8C
3DE13A93
3E57DBF5
BE4C8FB8
BE74DEC2
3E391FF7
BEBD0E34
BE22F1ED
3D3925BB
3CA3F24E
BB6BDD33
BD879CC7
3E546BF0
BDE70C99
BCCA2121
3C0F92B0
BE3D2DCB
BBBC8C0D
3DF1611C
BC66A338
3DBDDEBE
BE7B417D
BE618B93
BDF2FFD2
BDD6A055
3DE4D552
BE8A4745
BE5A0DFE
3D7ACC4F
BD97B070
BE47C808
3D32D6ED
BE8386D3
3E0FCB92
BC055971
BD30F495
BDA0D34A
BE731CEB
BD0092CD
3C7E08AF
BDAF9B99
3BCCAB3F
BE81E519
3CB5F3D8
3B91EA79
BE94091C
BEA987C6
3E27C958
3D0FC0D3
BE223854
BD57CB2E
3DE3F35A
BD9245B3
3C354E2B
3DA12514
3E4028E5
BD96A93F
3E46B3FF
BDA49A99
3DD0763A
BED56627
3DA3F67F
3D7F3387
3DA25D8D
BD51B60B
3E21600F
3D907853
BD926E98
BE127568
BE343AA8
BDCF587D
BD2D288D
BE6DB164
BBD1AEB4
3DC9E7FB
BB8BB906
BDAC7000
BBF6C69B
BE7F11F9
BC1AA1D7
BEA798B7
3D577C89
3DB2031D
3D2C625F
3E573259
3B8C8ABD
BEA876C0
3B9491F3
3E7F43C8
BE9061A6
BF062457
3D57891E
3DD0403A
BB9EB207
3E21E2DF
3DB3293D
BF08BA0F
BEABA81E
BD5C9928
3E2A83F5
3E412F0A
BED7D007
BDA581CF
BD8FF972
BE25BC45
3E6481F5
3DFA2835
3C8D2A20
3DD7E5EB
BE8E9CED
BB80303C
BE935222
BE81F5E0
3D7A0C6B
BE16ECE1
3E2F8F8A
3C8E6299
BE1194C0
3DA853C1
3E0E5C92
BD0BBE44
3CD9BC34
BDA43C3A
BE6CC35D
BE4F40A3
BB7A15DB
BEAF8B15
3D766517
BEC4ACD2
BD19C9D6
BE7E939F
3BDB4891
BCC21C04
BED1D170
BDCC17EC
BCFD32C6
3D9CE209
BD4157EF
BD1B530D
BE774363
3D932D6F
BE2EB5F6
BDC0A0F5
BEBAAF14
BE1CAF2D
3E50181E
BDC832BA
BE99CAC1
3DC32A8D
BCE07A29
BD08E150
BDF14A0A
BE92979E
BE5F10ED
3E24D339
BD43B0C4
BAE3CD9A
BDD6E1DF
BE2E746D
BE3E5109
3E17292C
BDE0C522
3D7CA969
BE07D4E1
BDD2C626
3E6A0BE5
BD223F25
BE8903A7
BDF04817
BE23B603
BD4D64D8
3DFBBE01
BE2E3D60
BDB122B8
BE5877AB
BD95C28F
BECC5261
BE88EA18
BEA03A32
BB8B1141
BE9A8F3B
BEB526B7
3DBF67F5
BE755F78
BDC4E50C
BD63ED0F
BE42C519
BEC373B0
BEB581F1
BE2D0F1F
3D3C3F81
BEAD0742
3E4ECFA7
3E905F8D
3DB06680
3DDDB014
BE8D4FDF
3D226E54
3E22424A
BE7594F2
BDEE4E27
3DCCE465
3E2E6299
BEA1E258
BCFA3550
3DB111F1
BDFC05D5
3C2005C4
3D8DDACF
3E246ED2
3DEE3476
BDFBBA56
BE341249
BD0C0F02
3EDDAF29
3DF661F2
BE0B45F1
BE26E71D
BBA48F97
3E9001B4
BDF77319
BE39BCBA
BDF32F01
BD644956
3E213554
3E4C05D5
3EA57519
BD47D4E1
3E02977D
BD8F0B6B
3D637586
BEC71BAC
BDE6FE72
BC80FBA9
3E485C68
BE960200
BDE09AAA
3E7CC0BE
3E53B81B
BCF8DD61
BDD7BBF9
3CD84D34
3E6D6345
BDA55EAF
3E4F1AE3
BE2BDB1A
3E155FFE
3E0CD78C
BD2DE43F
3E8FDC38
BE1723EE
3E4D640F
3E810AFE
BD12A62B
3D6CA57A
3E70E0EB
BE1FC979
3E18A58B
BE23A861
3E726FE7
BD811905
BE016C61
BE01F8A1
3C0DE6DE
3EDB506E
3D9A06A7
3B536B4C
BEA151A4
3CDA8DEB
3D7B15B5
BE167232
3D1CA07F
3DF7DD87
3AF32379
3E2D9FD3
BE80DF37
BE217EFE
BD9653CA
BEB96E9C
BE660CBF
3E8224EE
3EBC7E28
BCD5757D
3D869A4E
BE3E77D5
BE214834
BE9F5B1D
BC94BBE4
BDE620AB
3E0DF2ED
BDA1D3AA
3D7966BE
3D8A38B9
BD69717E
3E662F16
3E839885
3D6FF7E0
3E808AF0
BF033861
3E1DEBD9
3E15E5F3
BEFAEA10
BE90C500
3EB62E0A
3E413554
BDEFEA3E
BDEEEA64
BD0F3A9B
BE424788
3DCF69CB
BDBF559B
BE9275CD
3DB0331E
3DB5F02C
BBBB7F9D
BE269F06
BEB108E6
3D98B589
3E8474DA
3D129FE0
3E85A9CA
3D40474E
3BFF8EC1
3DB9085F
3DCFB763
3D4FD19A
BEA1F341
3E297B31
3E352E30
3DCBC947
BE2BFDB5
BE49491F
3D06AB15
BEBE5BEA
3D869729
BC90F51B
BDF0D7BF
3DC922D9
BCC2D8C3
3CC8A15A
3EA342AB
3D82FF09
BDE3D039
BCDB9410
BE3B70EF
3CCA6CA0
3DC6EA85
BDE4FE37
3DD041CC
3D0509C0
BCA94FF0
BDA2C2BD
3CE581CF
BD1C25D0
3E12D6ED
BCFFB8B2
BDA010C7
3D989D6B
BED47CFA
BE0CB74E
3D4E90BC
3CE4191A
3D01754B
BDB6D43D
BE1A4096
3BBD6627
BEA7B13A
3D74E011
BDD26528
BC298677
BE549A56
BC9BA3CA
BE69B888
BE96807C
BE140FAA
BE0E95B8
3E3638C9
3E85D335
3E2E392E
BE375FB3
BDD7FC76
3E0BF8FD
3E09E386
BDB80453
3E64F1A2
3E1CE4A8
3E1A7C5B
BDA78E9F
BD8E49F5
3E22C9D1
BEC15209
3E0361DD
3D93CD57
3DFD4D83
3E17EC35
BE39EF52
3E22E33F
BBF2F987
3E3A0B1C
3EB07315
3DA91644
3E14CC25
3E2F44D4
BCBEC248
3F09B292
3EBAE2FC
BE82F3C3
BCD2EF91
3E3160D9
3E39A997
BE17995F
BD3C547A
3A4A600B
BE491212
3CC0852B
3DC678C0
BEB2DC90
3E94FCA4
BC673A36
3C886163
3C3B59DE
BE703F2D
3E50357A
BCF24B77
3E2E5711
3D65B20C
BEA2E31D
3EAE8EA4
3D9AE686
BE5CD6C3
BD40EBEE
3E243287
BE1FF002
3E3C93A7
BE12B1F7
BE2112BA
BEA2949A
BD7B42CC
BDFF0803
BD87DA1F
3E110343
BC436113
3E9E3758
BDD891E2
BE76C376
3DD6A8B9
BEADA05A
3DD4E443
BCE35611
3E51259A
BD59CCFB
3E317DAF
3E7284E0
BE703793
BE5AD46F
BD8E9AB3
3E1E7EA6
BE9558A7
3E0A11A9
BE069C67
BE36922E
BD5347A6
3DD2A412
3DE8ECD9
BD9E5E24
3D02FC69
BD04AB60
BE3148BB
BDD5F56A
BE0F761D
BDD35DAB
3E3A087D
3E0E453D
3E0E718B
BDA623D1
3CECF638
3DEA3F8A
3E0A9110
3BB24A6B
3DF7FF15
3B9246BF
3DE5718F
BBA4766C
BE8F0F7C
3E4F71EB
3DC5332B
3C2CC4F0
3CC0639D
BB08E79B
BE9D57DE
3D569E3D
BE63F3E0
3E4FF8A9
BE569EC3
BE44ED2D
BEA2F33D
BDE50DF1
BD8E34FC
3E382667
3E5EA961
3E44AB1D
3DD7403E
BD472B02
3E9CA59C
BEA5740C
3DD1C4B9
3CCBDBA1
3E0DCC64
3CC5A815
BDAC0486
BD2F6B5D
3E3770BD
BCD39FBA
3D0BC05D
3DE448CF
3E7C892B
BE510343
BE43C18B
BD5187E8
BE612C6B
BEB8D930
BE112019
3EB80629
BE8BFA2B
BD6C6690
3E201190
BD8ABABF
BDDAC14C
BC80C73B
BA33D4AE
3DF27B2D
3E51BA80
3C79378F
3E4757D6
BE55D745
3E954B49
3D8E3476
BEBC3BB4
BE5C02B0
3D8F6944
3E89218A
3D0F1A1A
3B7776C5
3E721B7E
BE9980B2
3D72A066
3E756D1A
3CE56CD7
3E876D98
BBBAADE6
3E8AA27F
BE82AD3F
BE88A090
3CECF41F
BD2CC815
3C884407
3E0721D5
3D370AC4
BDEC5FC0
BECAB064
3DEF227D
3D17060C
3E3BC6EB
BC352C9D
BD85B185
BE9DC593
3DC7F6F5
3E5354C1
BE1D099E
3D380560
BD08E68E
3EA288AD
BDB82D38
3DECA687
BE079357
3DDB2464
BDA25F20
BDB11E86
BE3C4652
3ECFE910
BDBC8F32
BE1FAF86
BE8C7369
3C9DEEFE
BE1414E8
BE32DB62
BDEF2E06
BE57060C
BDB4549B
3E3BB129
BE9692D5
BEE00C31
BE888399
BCEBCC6C
BE21AD21
3DA1932D
3D4D3CFF
BE4F61ED
BE874107
3E91F538
3D464346
BE323C86
3DB65F52
3DC399B3
3DF15C64
3D885FD0
BD0F7122
3E0B2208
BE681388
3D016F00
BC9D4307
BDC3497B
3E1BEF07
BCBFB58D
3E5A62AA
BDE508B3
BE672607
3CF85F8D
BE84FAF0
BEE43372
BD39181A
BE280304
BE5B6955
BDB036CA
3DE3914F
BE9278AF
3DB4B620
BD0CB07D
3E059253
BD76CDF2
BAE2E2B9
3E508D4C
BE2C2EBA
3E03BD16
BE81F8A1
3E135654
BE88B06C
3DA2CA15
3D53D85A
3E8C180D
BD7A92A3
BE3719F8
BE6EFBB1
BCE17E35
BEB07443
BE0ABB88
BD605DD9
3E015A8E
BC470436
3D81FC8F
BCE03926
BE84F4E8
BE1C74B8
3E9C61FA
BC82BA5A
BD7382E4
BC9EADD6
BECC6541
3DCB380D
3E1A89B9
3E18BE2F
3E622AF5
BE2B5F1C
BDC1F6CB
3DE043A2
3E6C6866
BE457604
3AAD46F6
3E9D02AC
3E8CA18C
3E23A861
BE08FEAC
BEBA3A8E
BB05C24C
BE418762
3E7E0BD4
3D640315
BE4B588E
3BA62AA2
3DEC3B0C
3DE06317
3E00029F
3C2B29E5
BE957FD8
BE4A47ED
BD91D9B2
BD56EBD5
3E6EC6BD
BDF49625
3A1070FC
3D646174
3CAEFB2B
BB8A9BD0
BE039970
3E563023
3E466666
3E23F466
BC0CCDD9
BCC50050
BE62C908
BDFE2047
BE2DC7AC
BD90763A
BDD9A8CE
BDF66949
BEA5B941
BEC7876A
3E1150DB
BE085EC4
BE7A2CAA
BE2B7910
3E3FAEBC
3E6B3C3E
3B994185
BE75336E
3D85D8D8
3DEEE49F
BD8FDD23
3E03BBC7
3D232F45
3E5798D9
BC0A0903
BE5B9DC3
BEA5CB36
3E3A265F
3DBC579F
3D2E70C1
3D48D7E0
3E9C7BEE
3DFDA61E
3BAF5FD4
BE51C476
BE2F9980
BDD20210
BE86175D
BD6EBE59
BDCF89C6
3E3A5A8A
BD537F39
BE64AA54
BE0F67F5
BDA06749
BEEA491B
3E1150DB
3E270F7C
BDC4D65E
3DBD3804
3E9094A3
3E00342B
BDE7008A
BDB67F4E
3E1C53F4
BE0FE005
3E01804E
BE2EB13E
BE55E918
BCBDA0E0
3C54562E
BD4A87E4
BD84998D
3C609BB7
3CFA80D0
3E3741D1
BE80C2C6
BC12EA53
BC708CC5
BE7980B2
BE8F8AB1
BE517F84
3E1B5E96
BD079B35
BE0CCA2E
3CDC810A
BE340D91
3DB1FEEB
BD3214F0
BD18C9FB
BE05DFEC
3B1BB6AA
3D491F2E
BE1BA40E
3B7DE2EF
BC935979
BE16323C
3D529995
3E2CAE64
BE5DE43F
BD5BAE47
3CF2862F
BE7A3593
3D8DE7EA
3D9FE75C
BD845B29
3C7950B9
3DBEEC39
BE101605
3D380A9E
3D4945FA
BE37ABB9
3D1EABBD
3D816F87
BEAF8184
BDAF96E1
3B14B381
3DB5F80A
3E35182B
3D9DB984
BE521859
BEA726AF
BE562BF1
3C6A3593
BE880E8D
BE3978D5
3DFB645A
3E1F3BA7
BD9F79C8
3E1F78FF
BE59C066
BE2205BC
BC9463D0
3D5FB720
BD6B15F9
BE97E026
BC199568
3C1524C0
3DC73711
BD1BCBA3
BD342EDC
3D9DA2F9
3E38815E
3DF069A5
3DF98527
3DA51D26
BE0F9F02
3DCEFAA4
BE4C8191
BE5F01FC
B950AAA8
3D939192
3DD81388
BE4753E7
BE2C9D5A
3D290EED
BDBD1BB5
BD99EF0F
3E856A38
3B6581CF
3DA9D628
3DC2F512
BE100432
3E310492
3D8F9A8D
BDE75A32
3D5DACEF
BC9BD838
BDEDDD6E
3DC84F09
BA749492
3D89FF93
3E732DF5
BE241C3F
BE4E1651
3CB05532
BCD14E3C
3E256F76
BC8C79F6
BE3F8162
BE568B1A
BE3B777D
BDA86D72
3E041CC5
BD05EE57
3DBD8B61
3E2568E8
3E029A1C
3E6AE819
BDDE44FA
3D228ED6
3E440208
3DDBE33B
BD5807FF
3E3D6E8B
3E96CBB8
BE34FEBD
3D8E935C
BD3BC6EB
B99784EC
BE7B6673
3C8CA3E8
BE84B902
3D5E2479
BDE312F5
3E8A363B
BD7A3982
BE74BCAE
BEAF3EEE
BE7165D4
3C01F96A
BE1A06A7
BCE5EEDD
3E69FCB1
BE09B6B3
BDA31B58
3D5E0B4E
3D0F8402
3C3F50E3
3E41700D
BD4389F8
BD5782D4
BD2E1587
BC600086
BE02BA17
3E205F29
BCB5A20E
BDA6CB10
BD846AE4
3E402108
BE80F495
3D602C91
3D5E98DD
BE3C1659
BE86ACA8
3E36B010
3D9A9C99
3DC450AD
3E5B1C00
3E0FA722
BD97B8D4
3DD80B24
BEBD918A
BE25A683
BEA6D3D8
3C28EB46
3DA4028E
BDFFF0CC
BE29DCB5
BE8EEAA7
BDACDEA0
BDB7AB32
BE863C75
BE4CCAB4
3E21198B
3E01A60D
BE4A5B53
3DE3AA7A
BE8FAACE
BE34BA0F
3DC57C0B
BD358299
BE121709
BD81CB47
3D621427
BDBF1CFC
3CB16E37
BE81DE27
BC7D5886
3DAC8CD6
3DB0C133
3D3646AE
BC7D21FF
3D2221C9
BBCCCCCD
BB1A34CA
BE76073E
BCE5C91D
3DF4C448
3DDECDD1
BEA6C4C6
BD0B3F64
BE0501E2
3D4F26AF
3D7B927D
BC29C12F
3C279FED
BE49C51E
BE973861
3DC1882B
BE0ADB83
3E11B3AF
BE0447C3
BEC620AB
BBBA94BC
3BAE5BC8
BE8ED17C
BCEA5721
BDC193B4
BD8B1898
3E43E63F
BDEC68A9
BD1A5226
BC9A4591
BD8F4BE8
BE0A411C
3E0C7970
BD9789A4
3DB9AD86
BDFE3DA3
BE1412CF
3DE93FAF
3CF4A127
BD8856E7
3D9824D5
3E6950B9
3D70D1FA
3CED56B0
3E134A02
3CCCF6BE
3EB2F901
3E06E610
BE9B519C
3D8DB0DE
BE09CE8E
BC56CB53
BDA7EA60
BD00192A
BD11A976
BE8BB3EA
BDE730C6
BCC23D92
3CC67169
3E366341
BD4F9F45
BE86CC81
BE8DE41D
BE650ACC
3C33BFB6
BEA8E4B8
3E77C201
3D952E30
3D35E0F8
BEA7EE4E
3E10EC74
3D09F517
BE38D4FE
BDF74470
BD28A3F9
BD897A68
BE44C661
3D9E4D5E
3DDEEC39
3DCF1ED1
3E3998D0
BD5A0275
BE8415F4
3E9567FD
BD63EC03
BD075C4B
BDD66C6E
BB0B75EA
3E8BAB65
BDDD9F4D
BDE12168
BD7D8F0C
BE32A6B1
BDB2F2B6
3D4E8965
BDFFDA40
3E4CE39B
BD937FBF
BD8DCD2D
3DBDBD30
3E7D3AE7
3D03979A
3E07E6F7
3E52F0E1
BDB9B0AB
BEDC2A02
3CDBA909
BD2748E4
3CC6B26C
BEA0D3AE
3E4884C7
BD960BF6
B8FDC161
3DD23465
BE272368
BE925A04
3E9464BB
BE7E7B81
BB8A936C
3E9C9EED
BE114B5A
3DA54BCF
BD168512
BDEB7026
3D937111
3E6862F6
BC9A9110
3EAE7169
BD900A39
3ECB7586
3D92B346
3E4FEC9A
3D4C7F35
3D2DEA89
3E9F6966
BDB8316A
BE943A43
BD1B23DD
BDACD317
BC98E970
BD7AEEE9
3E60A8D2
3D62CECD
3ED7FEB0
BE58D21C
BE04DD72
BE8F1EB0
BC973754
3D03632C
BDB6E58A
3D645B29
3B8E820E
3E366384
BE59B49A
BD3C19C1
BC3AC2DF
BD3C6FBD
BE569AD4
3E0E5AFF
BEFEC2AD
3BFD5CB8
3E286A4D
BDC5BF27
BE8E8295
3D0AD9AE
BE85E636
3E1E4042
3D05C033
BDEAF0BF
BE038759
3E08D60A
3D27210C
3C942917
BEAA8F19
BDD4141F
BE5922D9
3D830121
BE60403A
BD2C460F
3BCFB763
3DE93FAF
BD5904B4
BC3AA583
3E568E3F
BC826EDB
3A00F990
BCC39DE5
BE7739B0
BDD8DF7A
BE0D462C
BE363AE2
BD581E04
BCB47842
BDEB20FB
BDF07421
3E6321E6
BEC5C22B
BDB3C57A
3DC415F4
BE070B4A
3EA6CD4B
3E8E4F33
BDADAEC5
BAA8B08E
BE816ACF
BE066384
BB5F9BDC
3DE61E93
3E949625
3EBA543F
3E21B8AA
3E4F609E
BDAC78EA
BE9EB7CC
3D506FEF
3DC497FA
3E07FB6A
BEC05C68
3EAA8D43
3E96F588
3EA2788E
3E3AC322
3EA5AE1D
BE69AFE2
BD9AC797
3E8BB3EA
3E476428
3E65271C
BE8695D9
3B704146
BE07EF9E
3D324852
BD799807
BDAA9824
BB369553
BD6A087D
BE4BDDBA
BE9031CF
BE1807FF
3C7E2A3D
3DBE5860
3E31183B
3E89B329
BDADA4CF
3E1E2D62
3E27E0F0
3EC9BA1B
3DFC9DE0
3E4E2585
3D5703F3
3DF157AC
BD58F0C7
3DF7DAE8
BE3611FD
3D213E3E
BE751C5C
3E630404
BE1CB70B
3EB61976
BD8F5B1D
3CAEF912
3DC060FE
3C3F50E3
3C3DE3FC
BE443D47
3DA70868
3DC21A72
BDEE392E
3D300043
3E5E2F7B
BD69D51B
3EE215DB
3E5E5FB7
BE919EB6
BE2AD795
3D16A37B
BAF34507
BDE6E86C
3D84DE3C
BE1D1CC1
3BD306A3
BE34FD2A
BDD0470B
BE9BE8FF
BEDC41BC
BE606573
3DD465E9
BCB6A401
3E75104D
BE390B85
BEB9D92B
3D3F11F9
3C1AE0C1
3D237479
3E50752E
3E7295A7
3E042E12
BDCF01FC
BB694EE4
3DDDD1A2
BDA146A2
3E403E21
3E32702A
BDC31727
3DD1D81F
BD91CD1C
BDE578E6
BDC347E9
3D1D3FE2
3BB3AABD
3DF60D02
3DC49881
BDDBFDF8
3D537D20
BE085879
BB93F291
BD1EF630
BC861A61
3D3A5C1C
3E3D9A52
3C1AD85E
3D0C0160
3D3250B5
3ED308BC
BD0FDC16
BEA5F4A1
BD3F7165
BDF1782D
3E864B66
3D900ABF
3CEB26C0
3D9397DD
BDFBD599
3DCAE6C9
3E5A6613
3D0F0D84
3CEA6C1A
3E01CC96
3DE4D120
3DF02A35
BDAB48D4
BE2F9442
3DA692F7
3E5E889C
3E6799A2
BEA8A809
3D5A7E31
BD03211D
BE44E22A
3E822B9D
3E895FCC
BE50C133
3E697E13
BD0F8E7E
BB159E62
3DAC050C
BE40624E
3D014834
3D88D089
3E593E1D
3B8E92D5
BEAEF263
BC9B75A7
BE1DEC1C
BED32A49
BE90CE4F
BCED06FF
3BE86402
BD92B90A
BD87F66F
3E60C804
BE67F844
BDFCA969
3E0A3A08
3CDE3DA3
3DC48F97
3C6DA22F
BBE6D15B
3D183C6D
BEA736AC
3D1CD2D4
BDA6C5D2
BD371002
3E9A1AF8
3E482774
BDE3632C
3D5612C7
BD21F299
BE859F4D
BC33E575
BE108DD2
BE7F12C2
3D249A13
BEA1E42E
3E1538EF
BEADD93C
BD8B5BB4
3BA92E62
3D2A6E33
3D663C75
BDF7A13C
3DAF74CD
BE8804B8
3DA91C08
3C5F8F47
3B77FCFC
BE316FCA
3D657B85
3CF76C48
3DB7DA62
BDD81062
BE893016
BE8E9E1B
BDB20B80
BE8C77FF
3D96BB13
BC541744
3DEE6D16
3DD9DF55
BE9AEFF6
BC6B6BF4
BE07CBF7
BE65CAB0
BE4FC8B0
BD73732A
3E13E2D6
BD70BE0E
BEF7A0F9
3E0322AF
3DFCAD9B
3E308F65
BE6499D0
BD9B1290
3DD15C64
BCD182AA
BE21DFB9
BDC0AD04
BD6F911D
BE7936C6
3D45F395
3DC09247
3E06BA49
BD9B16C2
3E02F6A5
BC76E829
BD1B877B
3E547A18
3E04B018
BCD07421
3C24A490
BCB34C5E
3D22DB62
3D6ACD9F
BE9CFE15
3EC51BD6
3E9558C9
3C579D0A
BE417508
BE64AB60
BD70B9DC
BE84FB76
3E960B0B
BE2918E3
BE710279
3E55D074
BE2EAF25
BE418EFC
3E181301
BCC0357A
BDAD7300
3E270585
BDDE6DDF
BCD5EAEE
3B80E8C9
BEBA5D6C
3D32E382
3E9C59FB
BE01E4F7
BCDDEBD9
3EB13AB4
BDC32229
BDEF9980
BE176966
3DBBD406
3E75260F
BE1797CC
3A8C3F3E
BC933A04
BEB1465F
BE7FBA88
BC87AF21
BE0A4F87
3D367903
BEDB3E79
BEA180F5
BEB77660
BE3EB895
BDDD8E86
BE34C2F8
BE881CF8
BE156C51
3D0C79F6
B9EF9980
BCDE2EF5
3E5F394B
BD78DC55
BE00AE53
BE93A711
BE85B74A
3E8266FD
3B993922
3D2F405F
BEB49B63
3E98DA7F
BDF34B51
BED5EDF2
3DC00757
BEA81C50
3E16E32E
BE220AB7
3E52C493
3DA642C0
BD0E7360
3E7B4A66
BE6C7326
3E3CAD58
3EB40725
BD41DB01
BD5A1CAC
3E21FC4C
3D511BE7
3E9BC298
3DBDE7A7
BE29AAA4
3DC6B7AA
BDA9A134
3DE2EDBB
BE7F7E3D
3DDFF2E5
BDDF687B
3DACD8DC
3D9BE4CD
3E12B6F2
BE0F077D
3E3F1F15
3E2B0EA2
3E0A1944
BD6B7132
BE4F7B9E
BDBB1748
3D410731
3E8709FA
3E38B652
BE9A3D0C
3D057C0B
3E21DB87
BDCC9EAA
BEB146C3
BD32B991
BDA57E24
3EAF42BB
BEC97D07
3D0CEA29
BE16D762
BE1B23DD
3DA7F3CF
3D976577
BE12428D
3C87F024
3CC45AA3
BE2F06F7
BE70A9DF
3DBDAAD6
BDE30553
3D85CDD5
BED01DC1
3D360286
BD31B153
BB4660A2
3EABC750
BE098AEC
3E1AD96A
BDD178B3
3D610492
BE545B29
BE05EFA6
3CFBBD7B
BEAF0A1C
BDF8EF35
BDCAB92C
BE530A4E
3DA321A3
3E1B6AA5
BE727FE5
BE924DF4
BDB033A4
BE315619
3DEDC012
BE40E1B5
BCB8F367
BD30C34C
3E028523
3CB8561D
BE4B4AED
BE39899C
BE94065B
BE328AE7
3E0E89A9
BD572581
BE54373F
BCE49907
BE888C3F
BE83DB5E
BED2BE6A
3DE02646
BE565BEA
BE4A84BE
3DFFD04A
BE18B2A7
BD860781
3E5BC1AD
3D88BB90
3DB3BD9D
3C1F559B
3D09F83C
BE1DF8F4
BE373E68
3E6C42A6
3D5E3FBC
BE088A05
BE2BE165
BD9C5F7C
3CE2046C
3DABB0A3
BCFA56DE
3E2C98A2
BD94CD31
BE827FC3
BE95FFA4
BEF5A2B6
BD706812
BE96E1DF
BDD69B9D
3DAC9E23
BC43DEE8
BE949907
BDF924AF
BE15CF68
3F028C58
3E7ABDA1
BE9627E1
3EDD985B
BE622079
BD8299D9
BE6AB14F
BD3DD11C
3DEDA448
3E991905
3E31287C
3DB0B49E
BCA6527A
BEBD7258
3CB9CF9A
BE569A4E
3D377AF6
BEA4E24C
3DE476F3
3E0BB01D
3E7F7660
BD62D730
3EEE353F
BEC78DB5
3CB9A7C1
3D9A43FE
3DEB0532
3E351C19
BE6602C9
3E9482E0
BCFDE508
3E7E3044
3E091FB4
BC0F190D
3E165908
3D47BAAA
BE66C722
3BF2C732
BE60346E
3DB60419
BE15D702
3C80D3D0
3E529952
BE8955B4
3E284902
BC239C52
3E67429A
3D736CDF
3EDEB7CC
3E206706
3CFB7415
BEA3B129
3E1BBCF5
BE38B8AE
3D308DD2
BE929132
BCFD6D7F
BDBBC44C
3E9E9121
BE6B3D08
3E3969A1
BF0617E3
BD98A6DB
3E54AE43
3E999E73
3E91ECB3
BEFFF562
3E344524
3D14C87A
BD691D9B
BE7C692F
BE2D4CFD
3D141744
3D30C88A
3E11AB8F
3EF06184
BDEEA290
3D8E746D
BC12189C
BEA54E4D
BE90D823
BD4AAFBC
BD206424
3D265ADE
3E694291
3DDCCAF7
BDA73472
BE16D8B2
BD7A3337
BD9AB756
BD9341E1
3DF8140E
3E9A66DC
BD94916D
BDFB36BD
3DFB0920
3DB7B95A
BECB31E4
3EA9C6D2
3D8EFED6
BBCC9A78
BEA5A858
3D3C9BC7
3E22DA12
BDE65F0F
BEC8F712
BD18A32F
BE5206C8
BE4C5B4B
3E1187A5
BCA5F41B
BDA53112
3D86A3BE
BE1DF82B
3E81565C
BE8C08D9
3E1C5500
3E6C5650
3DA2AA19
3E6C404A
3E083D79
3E5E8E61
3DD9A390
3D0E8D97
3E73BABA
3C668E3F
BE8985AD
3CCADBC6
3E07C41A
3DF99243
3DA19978
BC03B1D1
3E7F31F4
BE62F273
BEE0E560
BD72031D
BE5C4502
3DD4A7F8
3DFEE88E
BDB584B2
BE0BD72C
3D82AB26
3B8C3F3E
BE0BD44A
BE86B096
BD31F8A1
BDBD9A0F
3C6A0BA2
BD4F2389
3D9F22C0
3E0A0019
3D33FD93
BD88626F
3DBBCD36
BD9F5947
3D351CE3
BEB4193B
3DDA12B6
BE15781C
BEA55B46
3D2D7A57
BE02F406
BE22BB23
BE4E0B91
BC618698
3D18EC96
3D6F0175
BE15D356
BE88D2C4
3DE8B08E
BD80E1F8
3DB22531
BEAF2D1B
3DDD5779
3DEE496F
BEB92A0F
3BD7D7C3
BE20A88F
BE0D37C1
3E04AF0C
3D305B7D
BEBF7CAA
BE0D8341
BE9DAEC5
BE019AC8
BED2513B
3E5C0A07
3C8FA9C1
BEB0E6D1
3C947497
BCEC6584
BEDC02D1
BE8F97CC
BD893858
3CE1CFFF
3E3B8B26
3D67C287
3E903516
3E67B0B4
3ECF3733
3DBC5932
BE3EA52F
BD85C359
BE90F909
3E8A9974
3E6969E4
BD1FE75C
3D0C1659
3E8F5CAF
3DBF6901
BDE1F85D
BE9EFDA8
BDFD91AC
BE60342B
BE86A3DF
BEAEEF80
3ECAA90D
BD5476B0
BE4ED2CC
BD17E23F
BD6F5FD4
BE7B4D05
3EF8B136
3ECB5A86
BDEE03B4
3CD7D5AA
3E14AADA
3EB4AA54
BE2E3476
BC97A67A
3DB276FB
BE7E18F0
3EADF139
BDC18698
BE78958E
BE8B165D
3E990D17
BE128028
BD727DCC
BD979852
BE164A9D
3E92B218
BE776F2A
3BA95853
3C471D60
BE671FFF
BDBE0AC8
BE70956C
3E5980F5
BDD64389
BD00C522
3F103DEE
BE0850DF
BE4E85FD
BE7C89B1
BDE6876E
BD56ACEB
3E1E2867
BDC644D8
BD0C6823
BA8205FF
BE80A99B
BE90ACE2
BE2FB118
BDE67BE5
3D0D0AAA
3D2964E9
BE349342
3C36848C
BE805554
BD971DA3
3E95D0D9
BE8673E7
3DE4FC1E
3E0E7686
3DDD2285
3DCF97EE
3EA1DE6A
BDB1F0C3
BDF652BD
3D71A4BE
3E6F2DC3
3DABF013
3D97A56E
BE77C9DE
3E8B83AE
BE1CEEE1
BE736545
3E405101
3E28E10D
BD3C675A
BE55F02C
BD2A0557
3D778CCA
BE6AFD54
3E327350
BEAF2C0E
3E90ED81
3D99CF14
3DD89C5E
3D8E642C
3CD63455
3E702081
BE0A16E8
3E3CED0B
BE8C8755
3D13B5BF
BDE83340
3E556DE3
BE4D084F
3E6FE8AB
BE91654D
BDFCE9E6
BEAE2C56
3E1F9CE9
BE518549
BD93B6CC
3E5677F7
3D044391
3D7675DE
BE931594
BEBED070
3E26AD71
BCD12EC7
3E09563B
3E051761
BE79BED3
3E5E0264
3D48C60D
BDFA8BD2
BE5425F2
3C071E6D
BE2B9629
3E1595FF
BE9E7968
3D827D03
3B4692F7
3E66B724
BE0CC4F0
BEB65669
BEC064AA
BE058F2E
BE2257C9
BD0333FD
BE1656EF
B97776C5
BE7D8F50
BE6C2C1B
3DBF822C
BE4643CC
BDBE425B
3DBC2092
BD646CFD
3D20168B
3DC1D862
3E0B9B67
3E1635A4
3E1B749B
3E4EBAAE
BD49F517
BDDEB28E
BD7E8039
BEB7ABB9
BD0E0115
BE156B87
BEDA6CE3
BEA39086
BDD018E7
BCBED0F6
3D5B36BD
BE977C24
3E04195D
BE8E9E80
3DA9CED1
BE009BB7
3E22FF4C
3CB738E7
3E2732DF
BE02DA55
3DCCA1CF
3E2DC055
BD931551
BDA3C537
3DCABABF
BE95579B
BEA32208
3E56F08D
3DD05426
BDDFFBCE
3DF25AAB
3E59AE4F
BDD59AB7
3DFAB4B7
BE2CF6BE
BEF40443
3E6FBB51
BE9BFAF4
BE662068
BEBBD33D
3E22B628
3DEEAE9F
3DD14A90
BE5645A2
BE3EA811
BE245A60
BECC9BA6
BDB46562
3D41259A
3E3C29BF
BCA33376
BEEE047D
BE59B888
3E2F1E08
BD81C68F
3C50F1F5
3E8ECBDA
BC1E5E24
BDA420F7
BD0E8A72
3E66D331
BBDB8BAC
BE69906D
BE81D6F1
BEB5115A
3D7E4DE4
BDEA8D22
BE7398A6
BE98EAE2
3CB4D6A1
BED9CBCD
BE35AEE6
3D93C4F4
BE53FA6E
BCF71002
BE81D799
3D8A1AD6
BE48915C
3DFF5BE6
BE2F3669
3D0E8427
BEA3B214
3E412EC7
BE382A56
3DEDE658
3DA2ECAF
BE2FB58D
3CBD1676
3E65BB7B
3D6F4F0E
3D5B5E96
BE8D2392
BE64BF4D
BD0A105A
BD322D0E
BE404E62
3B60C9DA
3E51CE29
3CBAE46D
BD5EE99A
3DD3C255
BE112019
3E1959E6
BE80C459
BE101861
BE3BFCA8
3E5B3AAC
3DE2C1B1
3D41E68A
BE9B5C18
BE05F99C
3CB84BA1
3EA2F6A5
BD878184
BDF4538F
3CA85879
BE386120
BB8A265F
BDC5D181
BD0CEB35
BE5B7953
3E7C8A7A
3D65A9A8
BF058E97
BD05CBBC
3E347E8D
BE6A0F91
BF06BC73
3E049F0E
BE40318C
3D6C7C95
BE59F2FE
BD3D1676
BE9E9164
3DB14014
BC53F9E8
BDA1C2E3
BC8D5A5C
BE84679D
BD7B99D4
3C43DEE8
3E88E64B
3D4B7E4E
BD3D3911
3E928CDF
3E5918A0
3E3492BC
3DB6EB4F
BE5622C4
3E93BFD7
BE52F1AA
BDD270B0
3E62A51E
BD4B4396
BDDA3E3A
BEDA6CC2
3E87FB48
BE080C74
3EC19E52
3E82CF31
BD6C80C7
BD0472C1
BC39F128
3D6D6BA9
3D972D5E
BCA77E5F
BE6130E0
3D99CCFB
BD6F20EA
3D4295A7
BD04D984
BDB9C5A4
BDA28DCA
BE24EFCC
BE29A34D
BC02B1F7
3E22C493
3E95A0BE
BE2FDD66
BE27CFE6
BE196D4C
BE33DE61
3E0923A3
3DD9F7F9
3EADF3D8
BD835504
BE8DA5B9
3BB47410
3E6903A7
BD8792D1
BEE8FD3B
3E6AA9F8
BD7790FB
3E32352F
BE40DBF0
BE7425F2
BEC9C2C2
BDFE5D18
BD4D1202
BE1BBE01
3E53FC44
3DD36695
3CCEEBF6
BE15C465
BEE39496
BDA1EA36
BE8409E5
3D9634DB
3E071AC1
398E9B39
BDC6AB15
BE3850DF
3DE4AADA
BDA3400C
BC696C40
3E467126
3E75C63B
BEC3EBC0
BE952114
BB986FCE
3DBD449A
BE6557DE
3EBB9B24
3DBAEDDD
3E40E497
3D36EB4F
BE89A5CA
BE9F9592
3E0D0AEE
3DC46D83
3E4760BF
BE7064ED
3CE49F51
3D977425
3B1F83BE
BDC6D82C
BE3DC5D6
BE7A4229
BE891149
BE371EB0
3E0B4B73
3E0C2CE4
BF018A22
BE49D495
BE8C6866
3E1D31FD
BECC4E72
3E430B18
3E6E09BB
BE88AF81
BD0ABC51
3DDDA8BD
3D8E5ABC
BD17F51F
3E1497FA
BE39D1F6
BE904BC2
BCB32F01
BE5DCFCC
BF03179C
3D74D270
3D438B05
BE9F867F
BEBF6124
3DFE0264
BEB826CC
3DAC0DF6
BEF0448D
BD9C6F37
BDAC27A6
3E3CD035
BEABB257
3E05842B
BE18AFC4
3E066FD6
BDE4E37A
3EA0A611
3E3B9B67
BDCA936C
BE940AD0
BC3AA151
3E09463D
BD8AF816
BD255C10
3CD2007E
BD0869C6
BD1E6688
BE2372E7
BDA1DD1A
BE8C7864
BE129BF1
BD582774
BAA0D34A
3DD8D25F
BD0E0A85
BE4EB745
BEBCBEC6
BE80C88A
3DA81B22
BB8BC16A
3E11F106
3DC8216C
3B09E343
BE97A95D
3DA1F106
3E8BD1EE
3D055DA2
BCEAFEE7
BE3C1B54
BEEF5A10
3D1015C2
BE30A676
3D178705
3D3F162B
BD9D2E94
BE1EE17A
3D8F25A2
3CBC536D
BB9307AF
BDD7A893
3DF11B61
BD99AA61
BBA0FD3B
3E27EA1C
BDD8FFFC
BE29FC2B
3D59567E
BDC486AD
BE137479
3D99A30A
BEDD0D8D
3E1862F6
3DAB72C5
3DA2595C
BF0745BF
BBC7C0F4
BE3204F3
3DE455EB
BEDF6838
3DAB5AA7
3CF5BC45
BE798959
BE105C03
3D56377A
3EC0BBF5
BE0482BF
3BE7EE91
BEB0A30E
BD766730
3E103926
3E27DE94
3E334613
3E3A697B
BE473797
BE59BAA1
BE16CCA3
3D508B33
3D59FB1E
BD8FA15E
BE76B7ED
3E6C49FD
3D9A836F
BE1EDAA9
BCD66491
BE451A87
BE14434E
BC92513B
3D48D6D4
BE9603B4
BC97FA5D
BE8D245B
BE9578A3
3DA3E39F
BE1ACA36
BD52C7B9
3E85B8DC
3E82F20F
BE973ABD
BCFEC354
3E096B76
3EA9B670
BDBD145E
BE49973E
3D9DD228
BEA7B0D5
3E0E7297
3DE4B4D0
3D54E1A4
BD841D4B
3E5D1F1D
BC732BDC
3E1578E6
3E68B5CC
BE8ECCC4
3E25204B
BE0E39B4
BA52806B
BE840D4E
BE0E1A3F
BADB4891
BDC35372
3D9798D9
BDD0470B
3E0A3487
3EA068DC
BE34538F
BDDA2510
BE5ACFFA
BE1F7B5B
BD81B8ED
3D0296B3
3E125E9A
3CF88FC9
3E1C3DAB
BE8259C0
BE149518
BE1BD4D0
BF06FAB5
BE75BB7B
3D9EEBB3
BCEE86C6
BEC03D9B
BDF75E20
3D443E53
3DE7A850
BE817354
3CED02CD
3E0544BB
BDE4E7AB
BB0BC9CD
3DDFD934
BE2FBA02
BD819653
3DBE00D2
3DD06141
BDC942D5
3DC548AA
BEF0AB50
BD04E1E7
BDCF6A51
3E22BCB6
BC431162
3DA69058
BD9805E6
3E412663
BCF9EE03
BE609396
BE8B6CDF
3DDDCD70
BE82A194
3EBACEEE
3E295853
BE050CE5
BD214CEC
3E8324A7
3E0C00DA
BE1B7C35
3E5F9A07
BE876D55
BC238FBD
3DC1A155
BDE7B246
BEC3EA4F
3E447BEE
BE3D8948
3D2CDAF5
BE25CD92
3E8D1A87
BE5CB5FE
BEC26B0E
BE48E3EF
3E5EFB6E
BC49539C
BEC27AA7
BDABB6ED
BDF3F20A
BE2A9EF5
BD301A7A
3E270542
3E20F0E9
3ED4D9C7
BDB595FF
BE7C2657
BDB856A3
BE320F6F
3DAB50B1
BEB16E37
BDE236C1
3CC6B485
3E1BA51A
BED44AA5
BD1ED4A2
BDBAB53D
BEBC15F4
BE2FC32F
3BC5D207
BF00CA71
BD904BC2
BE4FC7A4
BE7197A2
BD1C0B9A
BE9D0225
3D0B673C
BDFF4D38
3D49CD3E
BDCC0379
3EAC202E
BE407315
3E03BA34
BF2447F5
BE2C2614
BE8E1A82
BE217508
3DBCDAB2
BE02B6AE
BE1E785B
3E39B414
BD2262CC
BE365493
BD4ACE25
3DE94142
BE196DD2
3E25F5AE
BE8C60EE
3E372DA1
BEC9A006
BD9A33BE
BDE0BFE4
3D8C6823
BD91B0CD
BE234D6A
3D582CB2
3E67E671
BE99D27C
3DCBE597
3CC1700D
BE66BA8C
3E0820A3
3E82F9A9
3E0F954F
BD8270F4
3C557796
3DD10881
3E116590
3E29FB61
BE8EF47B
BDCC5543
3E52AE4B
3D244524
39F9096C
BD352A84
3D625B75
BD825F20
BB988095
3A2D8A11
3C417657
3D4D0BB7
BABEF8CF
3E086A0A
3EA4F2D0
BE0D0AEE
3D97CAA7
BD5E58E6
BE3253DA
3E2F1173
BD77A919
BDF4F616
3DF807FF
3DA606FB
BC28198F
BE1B723F
BDCBC515
3D18E326
BD96F75E
3E2C85C2
BD880AE1
3DBCC9EB
3DAB92C0
3E7DB8BB
BD85CA2A
3E869E80
3D643138
3E3AB64A
3E348494
3E310C2C
3DAC32A9
3DD289DB
3E14C272
3CAC2DF1
3D9CF356
BED64FFD
3D753719
3DEDEB96
BDA8722A
BEC9D799
3D2120E2
BD815443
BEAC5975
3DE6C97E
3BB966BE
BD588095
BE6440AF
BE10A1BE
3E561BF3
BE4B024F
3D95FAA9
BD03FE5D
3D9400B9
BDE37260
3E19780C
BE888A69
BE673216
3C8B417D
BE05B036
3D9610AE
BE8152D2
3E9B0EA2
3DECD39E
3D8D9F0A
BDB1654D
BE0306A3
BE8DA017
BDF368AD
3E073FFB
3E06FE72
BDF098D4
BEA25E9A
BDD4E768
BE284A0E
BC89FA55
3D1CFDD2
3D8D1288
BD786C22
BD0854CE
3D09A88B
BEC0D068
BE12788E
BD0080FA
3E3AE686
BCF47B67
BDB6C722
BCB70260
BCCB5782
BEAD9CF1
3E19CAE2
BC8F42FF
BE2A3A8E
BE2C579F
BDC35372
BE208AAD
3C5D2F1B
BEACF249
3DFF06F7
BD5FF4FD
3BC3EB7D
BE0F2171
3CDF45E1
BEBFC287
BDC51DAC
BD2AAC11
BD60BA1F
38ABF76A
3DD71C97
BECEFF7E
BD30110A
BE875EA6
BD8CC708
3E0E9E5E
BE7B1C86
3BE73E68
BE0D2418
BCC44391
3C868124
BD7E2718
BE41F9AD
BE5283D3
BE7B75EA
3CA89B95
3C924074
BE4C358B
3CE41F64
BD91E753
3D64B76F
3DECE465
BE3CAEA7
BE6B6ED6
BE6A7935
3CE4ECEA
3DECC038
3D5ED17C
BE1E24FF
BDBF10ED
BE8FF9B5
3DCC49BA
BCB7BD06
BE080A9E
BE12C626
3BBA9D1F
3E8E36B1
BEEA6070
BE523A2A
BE6B1DD6
3D92239E
3B5D3FE2
BE230985
BE8676A7
3D6B9E49
BE8F993D
3E8713F0
3E2FAC60
BD12CF10
BDDF1498
3D95CD92
3D9451FC
3DC347E9
BD334613
3CBB55AC
BE6985F0
BDCAA327
BD9D4BF1
3D064884
BD1131EC
BE6B8306
BD8382A1
BDB631B6
BEA462A2
3DD8AFC4
BEE41DD2
BE4A7C9E
3E0AC68B
BDE28566
3C85B185
3CEB93CD
3E61AD21
BE90B2A7
BE261459
3C353501
BE86FDEB
BDC476F3
3D3BCF4F
BEBB9D80
BDE181E0
3CA44C7B
3D612E84
BE2F8EC1
BE8AB303
BC6C679D
BD023E9F
3DAB356E
BE3CCD10
3D1B994E
3CB2A27F
BCFA2058
BD51B4FE
BE5019F4
3E51D4FA
BD882B63
BE4BEB9E
BE84B4AF
BE62C9D1
BE35B1C8
BCDA89B9
BD705EA2
3DF649D4
3D54738A
3D94EE39
3E20663C
BD78F57F
BD5A2403
BE8DE3B9
BDA481F5
BCA4C1EC
BD80578E
BEBD4A1B
3E249668
BE200FBB
BE61ED18
3E584F4C
BED3A53C
BC0A19CA
BCBB96AF
3C55DC40
BEA5A1A9
BCD7646B
BE8DE786
3E3E0E73
BE80BD23
3C09F83C
BDBF9AD0
BE6B25F6
3E0EB67C
BED2DBA5
BEF3E09C
BDFCDF6A
3DA43244
3EAB1572
BD34B945
BDB8E001
BE1C4370
BE5669CF
BD8A8E2E
BECE6107
BDC455EB
3E5321E6
BE09EC2D
3D42730C
BDCD4888
3DF3A68B
3D98EDA2
BEA3F35A
3E0AC365
3E8613D3
3E45E7C9
3C97B310
3D1655E3
BD73EAB3
3DDE8A2F
3CE1AE71
BBC12AD8
3DF4A87E
3E4D6734
BE01AF7D
3E83DA0E
BE45614E
BE7BAC2E
BDC97A68
3C637586
BE91E0A4
BB6581CF
3DB0BD01
3DCF861A
BEF4E3BD
3DE77BC0
BEC160FA
3D517721
BC834D27
BD8B8280
BEC0F627
BC8FA15E
3DE54EF4
BE860F80
BC5A1661
BEB88DF3
3E8291B8
3E1E0B91
3C91819D
BEAECBFB
3D74549B
BE958F2E
BD6278D1
BE6DD15F
3CEFED63
BDA696A2
BD2A0232
BE493187
BDAD6345
BE69EE46
BCC38088
BCDF06F7
3E470154
BDB82129
BC50678C
BE7D5E07
BB858FF7
BEA11C2A
3E2C532A
3C1EA9A4
3D3CE209
BD08B652
3E19C27F
BEC60FE4
BD9B70EF
BE3ECD8E
BDB33B97
BE797E56
3E247D80
3E759D13
3D4259E2
3ACEF673
BC9EA9A4
BE1386D3
BC252EF9
3C380A9E
3D057082
BD48A698
BD1EA897
BC0754F3
3D6C0B56
BE9C881E
BE5F123C
BE14A98B
BD679DD4
3DECD63D
BE75BDD7
BE9EAD71
3D9C78A7
3CD1244A
BE2D8A11
BE50E7FF
BD522C88
3E0360D0
3D973C92
3D787DF6
BD832980
3CD8DDE8
3CAC753E
3CE43CC0
3DC5E0B5
BDD13E81
3E003750
BE6FB0D5
3D957BC8
BD747304
3E0B77C0
BDF78A2B
BDF3E682
BDFFA872
BCFF151E
BD51F2DC
BE804253
BEB3B4B3
3DCC9321
BDD6EB4F
3E913986
3DA6A338
3D176AB6
BE7F1887
BDC14163
BE86F417
BE86F34D
3DA97E99
3E806FCE
3CD3C361
3CA52264
BE46390D
BCA13C25
3E1BDDFD
3C0919F0
BE8A3C00
3CEB484D
3E42F017
BDB7B6BB
3DC75686
3D9B70EF
BE9D2AC7
BDB56E26
3E27E0AC
BCA58D58
3E298F60
BE0162F1
3A919EF9
BDC2A5E8
BE0D7B63
BDDEFD00
BDE48C72
BE3DBB5A
BD5BFAD3
BDE0AE97
BCF5989E
BE9ED203
3EB361DD
BD0433D7
BDA38E2A
3C8BE511
3E688E37
BDB86DB5
3E4DA9CA
3DD789A4
3DC8B9FE
3E06CD6C
3CD4DA4D
3CCDA2B6
3C3E2F7B
3E4BDEC6
BE597311
3D2F8BDF
BDCF3DC0
BE166949
BE9561D4
BE13671B
BE01D0C8
BDD33094
3EBB3A69
BE385CAB
3CB5D463
BEA88F86
BD8B7B29
3E8BCA53
BE6FFBCE
3CAAB042
BE03632C
BEBD9BC3
3D4ABD5E
BDAEB24A
BDC6D699
BCFAEDDD
BEACEAD1
BE5F8876
3E216D2B
BE04898F
BD8765BA
BED04684
3D9D89CE
BD4AE211
3D68A82A
BDC1B21C
BDD0DBF0
BD3268D3
3E353B4B
BE1788DB
BE1B0963
BE9CBBE4
BDFC22AB
3D739C0F
3D6034F4
BEB40F02
BE3E33AD
BE26A2F5
3E572D1B
BDBB224B
BDD4A01B
3D029E0A
3E393E1D
BD6D0918
3C6518F4
BE6A7265
3E68F712
3C614BE0
3E64A0E4
BE773C0C
BDDBB624
3CC5F17C
BD5FD157
BBE8D973
BE8C8323
3D2EEE95
3E890EED
BE175F70
3D9865D8
BE851915
BE44A622
BE367D78
BC0533B1
BD6F4BE8
3E82BCD8
BE785C25
3C22F48C
BCEC6DE7
3E9BDC48
BE03B8E5
BEA6F8F0
3CA220BC
3CC8EAC0
BD59BE4D
3E6BF65E
BD6D538B
3E3A7C18
BEAC2D6B
BEC3D1EE
BE961DEB
BD8F1D3F
3D98E864
3D85D28D
BE896873
BDFF9618
3B827B70
3D83B795
BEBA2079
BE8ADFF8
BE4A58B4
BECD9AFA
BE66BDF5
3E26809D
BE21804E
BE222FAD
BEE686E8
BE884D98
3C9A4378
BE1ADD9C
BD0BEB5B
BC91DBCB
BE4D93C4
BA1BB6AA
BD8919F0
BDE76F2A
3E725D4A
3C30F27C
BE863088
BEB1FE65
BD0EED03
BE228D43
BE56CBDA
3D5E6EEB
3DA3F78C
BE06E7A3
BE393426
3DC7C84B
BDFB9BED
3D20BB2C
BE99D452
3DE2DE87
BE02A51E
BE2DA3C2
BE67824D
BDE90A35
BE93B129
BD63582A
BE173259
3D1E8E61
BE27A249
3D397247
BE29420B
BEACD573
3D7417CA
3DD3B96B
BDFA9197
BE50B029
BD2497FA
BDB96FA8
BD8114D3
3D8E496F
3D825E9A
3E420429
3D0A48F9
BE047A9E
3DC63C75
BE63CE64
3D5AB7DC
BD49BD84
BE4CCC47
BE291212
3EB1C821
3DCAF89C
BD71AC15
BD6B3FEA
3E0B6CBE
BE80E7DE
3DB8AD25
3E3E3E29
3E11FD9C
BDC78290
BEC4F030
BCC2480F
BCCAF0BF
BDC6B7AA
3E16BA8C
3E0CAAFC
BDF4D8BA
BDDA7009
BE8D0CC3
BE99E625
BD858687
3D9FCE31
3DAFB8F5
3D26B0D9
3DD87B57
BCA5332B
BE223C86
3DA367E4
BD7356DA
BE243394
3D17B84E
BD4EFCBD
3D1DB878
3E53825E
3DA770BD
BE31E03F
3CECDAF5
BECD3D21
3C497529
BEADB164
3DD03537
BC8E7360
BEB3ABA8
3DA298CC
BEA94DF9
3E42A800
BCDFA659
BC007358
3CAAD3E9
3C283F4F
BCB239A4
BCE1650A
BE6F4491
BEA61826
3C92B7FE
3BB65A9B
3DC4E725
BDF58B82
BE1804DA
BCE4B87C
3DD79314
BD94D7AE
BE94447C
3E02D8C3
BDB8E5C5
3DB3BD9D
BC9CCB7D
BB8EF77F
BD811F4F
3E14C661
3C7112FD
BB473ABD
3DA48B65
BDD27781
3D38E087
3D76006D
BE4CFAF0
BEA354E3
BEA47000
BD61693C
BE2B47C7
BDC0CE0C
BD789F84
BB3D1245
BE4AA716
3E16922E
BEF0CD42
BCAE1694
3C051655
3D714FCE
BE2DE093
BD43D146
BDB8F798
BEB9F42C
BD83B1D1
BEA3020C
3B2B3EDE
3CEF1562
3E2FE64F
3C35B707
3D990F30
3E153BD1
BDCAD2DD
BC9E14BE
BE2878FB
BB2CE24C
BE1AF102
BD43EC89
BEB92924
BE30D994
BB5EF417
BC3CE853
BEAB1338
3E039B89
3D5BC98A
BE40342B
BE48BCE0
BE816C83
3DACB641
3D0B673C
BDC62995
3D6450AD
BE71ADA7
BE5D80E5
BE2E8640
3D8053E3
3C6878FB
BE842657
3BFFDA40
BE980F56
BDCEFF5C
BDA1C3F0
BE0F9C63
BE81F7D7
3E0C0E7C
BE83B539
3D8A172B
BD97EC35
BCE1B08A
BDB41D08
BDDF6DB9
BE20AE97
BD86BCE8
3E02C519
3DD18330
BB98F606
BE5316E3
BDC19C17
3DB184C2
3DCF1D3F
BE81C087
BDDF9AD0
BD7295EA
3E21593E
BE2487FD
BD82F8BE
3D00FFDA
3D0A2878
BCF5232D
BE85FD48
BE0C5719
3E2E27E1
BD0E29FA
BEB45FC0
3D906DD7
BD8DACAC
3E05B574
BE9069C6
3DB045FE
3E4726D0
BE5BD231
3DD1E109
BCA6937D
BCF56C94
BDDBA4D7
BE056DE3
3E055326
BE4ABDA1
3E36ECE1
3CB9D7FE
3B374DE0
3D0ED4E5
BDE05708
BC9F3C71
BDA7F23D
3BA90CD4
3D8CC89B
3D1696E6
BE918A87
3DD23704
BE04B05B
BDC0DD40
3E6D234F
3D7DC487
BE898DCE
BA856E69
BE33C3E7
3D79AE0C
BE56961C
BE202FF9
BD222D51
BE54ACB0
BDCD2BB2
BE5CA8A0
3D98C437
BC529995
BE6A52AC
3D25D074
BEC9C92E
BD0CC038
3E6443D4
BD3A15DB
BD9190D1
BD5B34A4
BC42ACB8
3DCC0E7C
BDB82F51
BD3ED634
BD14812C
BE374928
BE2C579F
BD877F6B
3DA3C9EF
BDAAD81B
BDAE8B7E
3DA4A6A8
BDE6A4CA
BCFFE4BD
BEB186BA
BD953DEA
BDA79896
BDE1A049
BE0585BE
3D14195D
3CB08BB9
3E03C3E7
BE22BDC2
BE3A51E3
BE273190
BE46DB51
3E16FB8F
BDB74FF8
3DBB1E9F
BECBDDFD
BE7204F3
BDD151E7
BE1C4BD3
BDCC3223
BE30F909
BD3CEA6C
BE60331E
BE8E4064
BE4E2F7B
3DABDE40
BE1E4713
BD1DC726
3E08DEB1
3CD2FC26
BCABB44E
BCE876E2
BE079357
BD7DDA8C
BD0895D1
BD0828C3
BD59780C
BE36173C
BEDC3EFB
BC49EA9A
BE0F398F
BECB413A
39D9945B
3E36BE38
3DD8EC10
BC7761CC
3BD898B3
3D215875
3D9AD107
BCBD102C
BE723704
3D8C892B
3BA6FC59
3DB204B0
BE62D7B6
BDEDCF46
BD834224
BE598EDA
BE07963A
BEC70FBF
BDA29F9D
3C9E0829
BE9B8B05
BE0F03D1
BDEDF1E1
BE1397DD
BE1B2789
BDCF60E1
BDE9F278
3E0CEF24
BD4C49BA
BEF908E6
3E7EDBB6
3E2E0264
3E1F93FF
3E2F6E3F
BEBCE076
3E20928A
BE976124
3E04D22D
BE3FC611
BE40FCF8
3E817EFE
3E814AD3
3D1D55E7
3D692C49
BE1A7EB7
BD9DF7E8
3DD7FE8F
BD91DA38
BE4F3776
3DCE0C9E
3D0219EB
3E84B46C
3C9F7942
3C7BDF09
3DEAA4BA
3D5CB46C
3C1AE925
3E5FFDE7
3DD91A33
3E04DE7F
3E447410
3E788052
BEAFB8D4
3E17FCFC
3E20A676
BEE8F92B
3E44C0DF
3E07F66F
3DB1B4FE
BDE4D8FD
BE8FBC3C
BBDB6A1F
BCC610F1
BE9999DD
BC0BB0A3
BE71348B
BE2AA088
3EE68A93
3BC1A8AC
3DB7BC7F
3EA106CD
BD065732
3E1333FD
BE73B18E
3E43C212
3E4C996B
3E65FB2F
3E159D13
3DC1EBC8
3E871C11
3EB75EA6
BE6D2029
3D76C8B4
BD96C26A
BEB7075B
BE6FCA86
3DAF62FA
BD375FB3
3913D966
3D75696E
BD109D06
BDFD9A0F
BE0AA2A1
3E85903A
BE055087
BDB0EB25
BE23A6CE
BEBA9CBB
3DC4FDB1
3DA5F30E
BD355369
BD4116EC
BE9A4AAE
3E240BFE
BCE75793
BE3CA42B
BEB86CCA
BDEAD688
3D8A4441
BD5C9B41
3CF76E61
BD8B8F9B
BE11B478
BD8A2B9D
BD47C30D
BC79F87F
BE2E3865
BEB1B867
3E1F0132
3CCD3177
3EA022BC
BE380B67
3DD36588
3C874645
BE358149
BD88C0CF
3D2A91DA
3DA153BD
BE3CB429
BC328955
BE87AE79
BD9A9EB2
BE078F26
BE834ACB
3E0002E2
BE1B0D52
BDC6D04E
3DF5E8D5
BE041E58
BE1E87D3
BE70CF5B
3DEA808D
3E357753
3CF2A38C
3D77AA26
BE09478D
BC41F42C
BE64E725
BD9E2AC3
3E1BE597
BEAFDB0A
BE171759
BEA773C1
3DD3F39D
3D7518B1
3CDE4E6A
3DD88440
BDEC2A45
3D52C27A
BD1D40EE
BE5D14A1
3E940208
BE48D435
BD5018E7
BEA72863
3E164239
3D89A240
BCE15012
BDFE681B
BE0D3A60
BECBE4AC
BE0AF4AE
3D0F1E4B
3C3DDFCA
3E5AA79C
3D2C4502
BD86EFC3
3BAEA748
3E1A083A
BE490AFE
3E5A2CED
3E58255B
3D3470EB
3DF6848C
BE96C56D
3E0A7D24
BB79E386
BEB78DD6
3E6C71D6
3B4282C7
3E39B0AB
BD66AB9B
BE9D92FB
BEBAAF36
3E4230BA
3E086BDF
BDCB3F64
3E7508B3
BDC03793
3EA96FEB
BE728672
3C535A86
3D58C3B1
3E0334C6
BE4C3DAB
3DEEC5B0
BD115593
3E2856E7
BD4D10F5
3D694899
3E5EF06B
BE8AF577
BE7D798E
BE634656
BD810B63
BDA61416
3E96B5F6
BE9F2C95
BE514057
BE496E59
3C187C63
BE9C06C0
BE0C33F8
BD91C21A
BE1FFC98
3C353D64
3DCC5EB3
BEAB49E0
BDBD3DC9
BD1D8C6D
BDDFB268
BE350EFE
BBFC58AC
BDE2EA10
BA99E0E7
3E0C92DE
3E26FBD2
BCF58C09
3D75610B
3E058362
BE1C204F
3E8981BF
BD8C9FB6
3CDA74C1
3C72CB64
BB76CEFF
3DC7F77B
BE59EFD8
3D48A15A
3BEF6F8F
BE3A5ACD
BE825F85
BECB8C11
3D9FE21E
BE26A401
3E3856A3
3DB6C051
BE8A6F82
3D6A5508
BB05F4A1
3D8CC89B
BDECB6C8
3E96FC7A
3DBAAA3B
3DE99286
BE122681
3D914CA9
BE121B7E
3E2398A6
BDAE0F3D
BCBFD502
BE97D2A6
3E0B1FAC
BE7B5137
BE8DB4EE
